xxunk	0
xxbos	0
xxeos	0
xxpad	0
xxfld	0
xxmaj	0
xxup	0
xxrep	0
xxwrep	0
.	-3.04831
▁the	-3.4467
,	-3.66948
▁ke	-3.99719
▁he	-4.22197
▁main	-4.25274
▁of	-4.36455
▁in	-4.43153
▁kii	-4.47915
▁to	-4.48497
▁is	-4.73475
▁ko	-4.75498
▁and	-4.79966
▁ne	-4.84806
▁se	-4.85658
▁or	-4.9144
▁a	-4.94439
▁kaa	-5.15895
▁ki	-5.17481
▁par	-5.22426
▁that	-5.23006
s	-5.2993
'	-5.318
▁hai	-5.325
▁	-5.36071
▁on	-5.38898
-	-5.47935
▁this	-5.48481
▁has	-5.57093
▁bhi	-5.67873
▁for	-5.7351
▁was	-5.74693
▁nahin	-5.7565
▁'	-5.79339
▁said	-5.81232
▁kaha	-5.82942
▁ek	-5.8877
▁liye	-5.90132
▁will	-5.91699
▁it	-5.9403
)	-5.94038
▁from	-5.96501
▁not	-5.97156
▁be	-5.97614
▁kar	-6.01213
▁kiya	-6.03437
▁by	-6.08751
▁tha	-6.0967
▁(	-6.13144
▁with	-6.14832
▁also	-6.16906
▁have	-6.19527
▁at	-6.21729
▁are	-6.23261
▁hi	-6.23737
▁gaya	-6.2609
▁yah	-6.29672
▁been	-6.33548
▁ho	-6.34104
▁his	-6.34234
▁police	-6.34797
:	-6.45159
▁baad	-6.47037
▁karne	-6.47388
▁"	-6.48108
▁saath	-6.49012
▁but	-6.55317
▁party	-6.56782
▁congress	-6.57099
▁team	-6.57122
▁unhone	-6.58527
▁diya	-6.5897
▁after	-6.59191
▁india	-6.59878
▁singh	-6.63131
▁rahe	-6.65545
▁film	-6.65557
▁modi	-6.65812
▁as	-6.67209
▁thi	-6.68338
▁.	-6.68397
▁government	-6.68531
▁gai	-6.69491
▁minister	-6.69926
▁hue	-6.71304
▁there	-6.73634
▁people	-6.77896
▁lekin	-6.79252
▁sarkaar	-6.79556
▁do	-6.79949
▁tak	-6.80488
▁rahi	-6.81609
▁i	-6.81783
▁rahaa	-6.85506
▁apane	-6.87041
▁an	-6.8791
▁were	-6.88651
▁had	-6.89094
▁which	-6.89597
▁pehle	-6.89786
▁court	-6.90502
▁time	-6.94216
▁vah	-6.95364
▁ja	-6.96723
▁who	-6.98464
▁bharat	-7.02706
▁gaye	-7.0417
▁you	-7.04334
▁di	-7.0635
▁pm	-7.07504
▁about	-7.11707
▁all	-7.13312
▁we	-7.1377
▁bjp	-7.13953
▁saal	-7.14129
▁pakistan	-7.15797
▁jo	-7.1648
▁logon	-7.17657
▁kuch	-7.19049
▁ye	-7.19401
▁ab	-7.20441
a	-7.20607
▁two	-7.20909
▁#	-7.21864
▁their	-7.23
▁can	-7.23033
▁they	-7.24631
▁us	-7.25216
i	-7.25309
▁hone	-7.25819
▁baat	-7.2625
▁vaale	-7.26265
▁koi	-7.26317
▁iske	-7.27984
▁delhi	-7.29917
▁apni	-7.3051
▁-	-7.31156
▁bataaya	-7.31469
▁karte	-7.3267
▁unke	-7.33206
▁one	-7.34373
▁when	-7.35503
▁first	-7.36436
▁these	-7.36741
▁unhen	-7.36938
?	-7.36938
▁if	-7.36975
▁against	-7.37001
▁am	-7.37243
▁pradesh	-7.37405
▁dilli	-7.38422
▁lekar	-7.38533
▁so	-7.40094
▁hua	-7.41795
▁no	-7.41883
▁then	-7.42068
▁hui	-7.43501
▁case	-7.44052
▁chunaav	-7.44088
▁kai	-7.44589
▁state	-7.45663
▁chief	-7.46605
▁jab	-7.46703
▁gandhi	-7.46711
▁now	-7.46749
▁(@	-7.46859
▁10	-7.48143
▁tarah	-7.48579
▁baar	-7.48853
▁out	-7.48918
▁its	-7.49209
▁being	-7.4928
▁should	-7.49691
▁kisi	-7.50065
▁country	-7.50111
▁desh	-7.50947
▁according	-7.51303
▁while	-7.5138
▁him	-7.51999
▁only	-7.52158
▁match	-7.53455
▁her	-7.53796
▁bijepi	-7.55603
▁maamle	-7.56066
▁khan	-7.5621
▁rupee	-7.56378
▁made	-7.56424
▁many	-7.5741
e	-7.57662
▁indian	-7.5813
▁new	-7.58401
▁last	-7.58423
▁jane	-7.58704
▁khilaaf	-7.59469
▁bich	-7.60039
▁5	-7.6089
▁over	-7.61772
▁other	-7.62006
▁year	-7.63006
▁ve	-7.63152
▁during	-7.63274
▁up	-7.63966
▁kaam	-7.64984
▁company	-7.64985
▁lakh	-7.65575
▁such	-7.6593
▁more	-7.66127
▁hoga	-7.67119
▁dauraan	-7.67556
▁yaa	-7.67855
▁comments	-7.68236
▁due	-7.68422
▁rahul	-7.69102
▁din	-7.69438
▁news	-7.69504
▁bhartiya	-7.69509
▁unki	-7.69634
▁media	-7.69671
▁liya	-7.69866
▁ham	-7.71088
▁2	-7.71803
▁donon	-7.71825
▁kya	-7.72084
▁post	-7.72541
▁rajya	-7.73215
▁yadav	-7.74065
▁prime	-7.74584
▁use	-7.74784
▁log	-7.74952
▁samay	-7.75247
▁mantri	-7.75322
▁world	-7.759
▁may	-7.76072
▁report	-7.76405
▁them	-7.7712
▁she	-7.77485
▁tippaniyan	-7.77591
▁three	-7.77814
▁years	-7.78043
▁chahie	-7.78198
▁mumbai	-7.78208
▁would	-7.78384
▁president	-7.78399
on	-7.78566
▁narendra	-7.7884
▁naam	-7.78901
▁did	-7.79206
▁bank	-7.79255
▁like	-7.80144
▁phir	-7.8115
▁some	-7.81366
▁kiye	-7.81875
▁same	-7.82053
▁percent	-7.82304
▁given	-7.82921
▁aap	-7.83188
▁under	-7.83282
▁karnaa	-7.83485
▁sabhi	-7.83622
▁na	-7.83952
▁day	-7.83989
▁saktaa	-7.83996
▁any	-7.84035
▁shuru	-7.845
▁paas	-7.84594
▁rs	-7.8512
▁‘	-7.85474
▁de	-7.85842
▁pradhanmantri	-7.85925
▁sabase	-7.86134
▁twitter	-7.8616
▁teen	-7.86452
▁wo	-7.87999
▁feed	-7.88321
▁video	-7.88432
▁yahaan	-7.88456
t	-7.88902
▁very	-7.89212
▁syndicate	-7.90274
▁vaali	-7.90312
▁karod	-7.90485
▁bihar	-7.90645
▁ran	-7.90751
▁shaamil	-7.91003
▁3	-7.91358
▁number	-7.91596
▁uske	-7.91887
▁aaj	-7.91925
▁get	-7.9197
▁today	-7.92199
▁@	-7.92303
▁dene	-7.92908
▁isse	-7.93502
▁kam	-7.93831
▁zyada	-7.94577
▁test	-7.94775
▁jari	-7.94933
▁netaa	-7.95296
▁mutabik	-7.9551
▁fisadi	-7.95618
▁pichley	-7.95751
▁here	-7.95894
▁jaanch	-7.9641
▁4	-7.9651
▁house	-7.96606
▁than	-7.96814
▁told	-7.96865
▁12	-7.96885
▁com	-7.97254
▁aa	-7.97399
▁before	-7.98018
▁bare	-7.98269
▁6	-7.98399
▁rup	-7.98781
▁election	-7.98818
▁take	-7.98824
▁my	-7.98885
▁america	-7.99402
▁seat	-7.99593
▁sabha	-7.99664
▁supreme	-7.99831
▁what	-8.0047
▁wicket	-8.00534
▁15	-8.00557
▁mukhyamantri	-8.0101
▁alaava	-8.01466
▁elections	-8.01511
▁1	-8.01522
▁jabaki	-8.01526
▁our	-8.01621
▁hum	-8.01772
▁khabar	-8.01904
▁come	-8.02289
▁started	-8.02624
▁20	-8.02911
▁work	-8.04051
▁haalanki	-8.04375
▁between	-8.04494
▁sakate	-8.04587
▁meeting	-8.05028
▁aise	-8.05169
▁agar	-8.05828
▁cricket	-8.05972
▁uttar	-8.0639
▁mili	-8.06468
▁30	-8.06599
▁runs	-8.06972
▁kumar	-8.07834
▁me	-8.07906
▁both	-8.08142
▁kashmir	-8.08246
▁kaaphi	-8.08293
▁china	-8.08452
▁accused	-8.08744
▁seen	-8.09143
▁aarope	-8.10114
▁har	-8.10138
▁leader	-8.10531
▁vahiin	-8.11249
▁jaataa	-8.11583
▁jayega	-8.11702
▁even	-8.11902
▁banane	-8.12066
▁days	-8.12182
▁however	-8.12253
▁dwaara	-8.13432
▁going	-8.13775
▁bahut	-8.14237
▁hogi	-8.15714
▁aisa	-8.15768
▁2019	-8.15769
▁darj	-8.16091
▁ore	-8.16355
▁sharma	-8.16831
▁8	-8.16897
▁purv	-8.16957
▁per	-8.17017
▁asked	-8.17264
▁)	-8.17352
▁kyonki	-8.17476
▁kumaar	-8.17876
▁apana	-8.18338
th	-8.18621
▁11	-8.19219
▁came	-8.19319
▁taken	-8.19408
▁shah	-8.1941
▁gujarat	-8.197
▁anya	-8.19937
."	-8.20681
▁7	-8.20805
▁took	-8.20895
▁hota	-8.21448
▁ghar	-8.21572
▁le	-8.21667
▁janata	-8.22055
▁ram	-8.22378
▁family	-8.23876
▁lok	-8.2425
▁/	-8.24353
▁captain	-8.24434
▁information	-8.2444
▁four	-8.24794
▁puri	-8.25001
▁unka	-8.25173
▁abhi	-8.25537
▁adhyaksh	-8.25724
▁how	-8.26055
▁second	-8.26223
▁isi	-8.26224
▁sena	-8.27007
▁saamne	-8.27133
▁50	-8.27446
▁die	-8.27815
▁kareeb	-8.28625
▁says	-8.29105
▁25	-8.29252
▁kaaran	-8.29491
▁pad	-8.29546
▁big	-8.29583
▁ise	-8.30084
▁jisamen	-8.30693
▁board	-8.3114
▁kshetra	-8.31187
▁could	-8.3127
▁march	-8.31302
▁jeet	-8.31654
▁where	-8.32165
▁security	-8.32231
▁jahaan	-8.33112
),	-8.33332
▁got	-8.3339
/	-8.33684
▁national	-8.33746
▁because	-8.33812
▁special	-8.33939
▁women	-8.34224
▁your	-8.34384
▁good	-8.34477
▁know	-8.3462
▁vajah	-8.34629
▁chaar	-8.34697
▁home	-8.34778
▁''	-8.34962
▁pratishat	-8.35431
▁leaders	-8.35445
▁centre	-8.35554
▁mahila	-8.35769
the	-8.35948
▁go	-8.36074
▁badi	-8.36097
▁shared	-8.36311
▁9	-8.36394
▁general	-8.36462
▁band	-8.36951
is	-8.36955
▁assembly	-8.37086
▁aane	-8.37131
▁sidhe	-8.37276
▁make	-8.37308
▁high	-8.37309
▁former	-8.37368
▁suraksha	-8.37422
▁sakati	-8.37579
▁jaankaree	-8.37676
▁bayaan	-8.37788
▁every	-8.37985
▁name	-8.38279
▁sawaal	-8.38288
▁isamen	-8.38619
▁april	-8.3863
▁mujhe	-8.38942
▁directly	-8.38999
▁sirf	-8.3908
▁five	-8.39422
▁duusare	-8.39636
▁decision	-8.39658
▁place	-8.39658
▁karenge	-8.3967
▁laga	-8.39697
▁taur	-8.39818
▁situation	-8.40068
▁paanch	-8.40085
▁crore	-8.40101
n	-8.40406
▁den	-8.4041
▁2017	-8.40601
▁earlier	-8.40632
▁kahana	-8.40671
▁issue	-8.41357
▁punjab	-8.41533
▁aage	-8.41546
▁aam	-8.41606
▁18	-8.41943
▁jail	-8.42084
▁well	-8.42107
▁maang	-8.42178
▁into	-8.42358
▁2018	-8.42421
▁public	-8.42461
▁statement	-8.42547
▁ji	-8.42948
▁14	-8.42997
▁incident	-8.43168
▁maut	-8.43433
▁maharashtra	-8.43639
▁ndtv	-8.43871
▁matter	-8.441
▁tathaa	-8.44199
▁jammu	-8.44348
▁won	-8.44378
▁vidhansabha	-8.44411
▁way	-8.4454
’	-8.44809
▁13	-8.45308
▁district	-8.45391
▁un	-8.45425
▁baahar	-8.45566
▁july	-8.45627
▁through	-8.45778
▁jaise	-8.45801
▁published	-8.45827
▁giraftaar	-8.45846
▁nitish	-8.4588
▁give	-8.45945
▁most	-8.46084
▁vahaan	-8.46134
▁16	-8.46162
▁car	-8.46614
ing	-8.46879
▁faisla	-8.46894
▁rahane	-8.47126
▁june	-8.47195
▁loksabhaa	-8.47298
▁pehali	-8.47629
▁tab	-8.47795
▁students	-8.47898
▁held	-8.47968
▁adhik	-8.4813
▁done	-8.48145
▁man	-8.48306
▁baithak	-8.48327
▁adhikari	-8.48369
▁seats	-8.48756
▁life	-8.48772
▁area	-8.48879
▁ban	-8.48957
▁enditivi	-8.48976
in	-8.48992
▁prakashit	-8.49628
▁attack	-8.49699
▁isliye	-8.49907
▁central	-8.49966
▁used	-8.50024
▁does	-8.50089
▁evam	-8.50467
▁aae	-8.50591
▁najar	-8.5067
▁november	-8.50916
▁money	-8.52106
▁alag	-8.52186
▁say	-8.52209
▁karen	-8.52214
▁2016	-8.52248
▁maheene	-8.5232
ani	-8.52819
▁pataa	-8.53193
▁army	-8.53221
▁next	-8.53373
▁dal	-8.5345
▁hoti	-8.53519
▁phone	-8.54322
▁ai	-8.54424
▁koshish	-8.54921
▁chal	-8.55178
▁including	-8.55368
▁khud	-8.55398
▁tahat	-8.55602
▁reached	-8.55621
▁parivaar	-8.55627
▁pramukh	-8.5603
▁bhaajapa	-8.56335
▁bataa	-8.56362
▁bollywood	-8.56478
d	-8.56498
▁again	-8.56882
▁bana	-8.56911
▁want	-8.57241
▁why	-8.57388
▁anusaar	-8.57957
▁lee	-8.58115
▁bill	-8.58362
▁uski	-8.58693
▁karata	-8.58778
▁political	-8.59018
▁jawaab	-8.5904
▁edited	-8.59319
▁apart	-8.5965
▁sampadit	-8.59709
▁ghatana	-8.59786
▁action	-8.59813
▁usne	-8.59852
▁become	-8.59974
pic	-8.59979
▁dinon	-8.60018
▁jaae	-8.60604
▁rashtriya	-8.6073
▁chuke	-8.61127
▁iskaa	-8.61216
▁dhoni	-8.61395
▁tell	-8.61573
▁2014	-8.61607
▁likhaa	-8.6217
▁’	-8.62294
▁17	-8.62335
▁those	-8.62583
▁since	-8.62603
▁varsh	-8.62825
▁24	-8.62847
▁power	-8.62982
▁just	-8.63057
▁lagaaya	-8.63273
▁killed	-8.63329
▁arrested	-8.63342
▁bade	-8.63498
▁amit	-8.63779
▁let	-8.63832
▁australia	-8.63843
▁raashtrapati	-8.64354
▁role	-8.64385
▁railway	-8.64703
▁40	-8.64745
▁mil	-8.64793
▁madad	-8.65031
▁found	-8.65332
▁pradarshan	-8.65954
▁important	-8.65982
▁rajasthan	-8.65985
▁much	-8.66091
m	-8.66105
▁taraf	-8.66284
▁vikaas	-8.66439
▁share	-8.66605
▁show	-8.66998
▁called	-8.67294
▁21	-8.67346
▁aapako	-8.67359
▁see	-8.67622
▁girl	-8.67785
year	-8.67937
▁children	-8.67971
▁soon	-8.68073
▁maamla	-8.681
▁group	-8.68528
▁pakistani	-8.68533
▁duniya	-8.68675
▁water	-8.68885
▁union	-8.69069
▁hand	-8.69149
▁england	-8.69314
▁taiyaar	-8.69335
▁jagah	-8.6943
▁kohli	-8.69519
▁air	-8.69535
▁aayaa	-8.69567
▁hasil	-8.70081
▁thim	-8.70187
▁100	-8.70488
▁vaala	-8.70502
▁hospital	-8.7053
▁aadhaar	-8.70538
▁adhikariyon	-8.70831
▁cent	-8.7084
▁lene	-8.71
▁ministry	-8.71007
▁released	-8.71208
▁kul	-8.71284
▁taking	-8.71341
▁mila	-8.71507
▁dete	-8.71518
▁puraa	-8.71815
▁times	-8.72017
▁investigation	-8.72046
am	-8.72453
▁hamaare	-8.72908
o	-8.73242
▁vakt	-8.73506
▁nae	-8.73936
▁jiske	-8.73957
▁till	-8.73978
▁lagaataar	-8.74009
▁isaki	-8.74029
▁piem	-8.74146
▁mantralay	-8.7418
▁baje	-8.74453
▁gayi	-8.74477
▁gave	-8.74545
▁madhya	-8.74639
▁department	-8.74738
▁bad	-8.74761
▁senior	-8.74977
▁committee	-8.7504
▁kendriya	-8.7506
▁hamale	-8.75174
▁social	-8.75276
▁adaalat	-8.75292
▁south	-8.75379
▁present	-8.75403
▁netaaon	-8.75439
▁far	-8.75502
▁total	-8.75517
▁commission	-8.75829
▁states	-8.75877
▁hamen	-8.75896
▁order	-8.76566
▁kabhi	-8.76903
▁duusari	-8.77049
▁along	-8.77159
▁aadmi	-8.77213
▁lot	-8.77334
▁market	-8.77382
▁bada	-8.77493
k	-8.77705
▁opposition	-8.77708
▁received	-8.7785
▁ani	-8.77959
▁prasad	-8.7801
▁left	-8.7815
▁19	-8.78426
▁hit	-8.78574
▁raat	-8.78596
▁around	-8.78655
▁‘‘	-8.78672
▁woman	-8.78842
▁haal	-8.78864
▁help	-8.78876
▁22	-8.79052
▁yojana	-8.79077
▁front	-8.79129
▁sent	-8.79229
▁kejriwal	-8.7927
old	-8.79307
▁patel	-8.79624
▁long	-8.7967
▁right	-8.79715
▁scored	-8.79731
▁virodh	-8.79765
▁istemaal	-8.80007
ed	-8.80034
▁international	-8.80498
▁support	-8.80584
▁road	-8.80675
▁kanoon	-8.80795
▁six	-8.8082
▁bengal	-8.80865
▁agency	-8.81153
▁final	-8.81458
▁hatya	-8.81494
this	-8.81497
▁college	-8.81601
▁chaahate	-8.81642
▁law	-8.81731
▁officer	-8.81962
▁haryana	-8.82004
▁karti	-8.82164
▁prati	-8.82342
▁question	-8.82364
▁rakhaa	-8.82512
▁countries	-8.82528
▁record	-8.83128
▁str	-8.83207
▁karrwai	-8.83491
▁parties	-8.83512
▁charchaa	-8.83519
▁saying	-8.83808
▁aspataal	-8.83961
▁dar	-8.84291
▁jaaegi	-8.84489
▁nai	-8.84528
▁sankhya	-8.84555
▁jis	-8.84668
▁development	-8.84786
▁samarthan	-8.84945
▁yatra	-8.85081
▁23	-8.85288
▁pesh	-8.85323
▁series	-8.85376
▁set	-8.85422
▁puure	-8.85429
▁lalu	-8.85491
▁increased	-8.85549
▁several	-8.85578
▁sthiti	-8.85592
▁office	-8.85685
▁coming	-8.85687
▁vibhaag	-8.85905
▁city	-8.8598
▁secretary	-8.86109
▁kehete	-8.86222
▁points	-8.86256
▁aadesh	-8.86267
▁aisi	-8.86269
▁jariye	-8.86438
▁third	-8.86447
▁increase	-8.86559
▁rupees	-8.8667
▁played	-8.86866
▁sanjay	-8.86955
▁system	-8.86973
▁went	-8.86973
▁mere	-8.87156
▁officials	-8.8717
▁part	-8.87464
▁t	-8.875
▁person	-8.8784
▁akhilesh	-8.87871
▁ummid	-8.87881
▁kyon	-8.87905
▁honge	-8.87953
▁crores	-8.88101
▁twit	-8.8825
▁karnataka	-8.88445
▁aaropee	-8.88562
▁1.	-8.88709
▁sources	-8.88865
▁khel	-8.88988
▁2015	-8.89068
▁cbi	-8.8909
▁26	-8.89185
▁va	-8.8928
▁ilaake	-8.89297
▁jaati	-8.89299
▁station	-8.89364
▁center	-8.89415
▁gaanv	-8.89699
▁ayog	-8.8981
▁score	-8.90123
▁play	-8.90427
▁mobile	-8.90434
an	-8.90467
▁members	-8.90739
▁muslim	-8.90801
▁injured	-8.90818
▁kejariwal	-8.91044
▁bazaar	-8.91067
▁hissaa	-8.91098
▁chuki	-8.91147
▁janaa	-8.91226
▁village	-8.91226
▁another	-8.9147
▁banaae	-8.91572
▁death	-8.91775
we	-8.92079
▁28	-8.92183
▁pahunch	-8.92319
▁mukhya	-8.92323
▁sector	-8.92373
▁thousand	-8.92465
ne	-8.92696
▁jarurat	-8.92869
▁baatcheet	-8.93106
▁arvind	-8.93241
▁subah	-8.93452
▁banaaya	-8.93457
▁jile	-8.93572
▁still	-8.94049
▁son	-8.94129
▁balki	-8.94178
▁top	-8.94384
▁monday	-8.94566
▁chah	-8.94881
▁yahi	-8.94907
▁sarkari	-8.95053
▁list	-8.95057
▁train	-8.95077
▁ali	-8.95164
▁27	-8.95222
▁later	-8.95284
▁tay	-8.95294
▁hote	-8.95332
▁somvaar	-8.95353
▁hajaar	-8.9539
▁night	-8.955
▁sab	-8.95609
#	-8.95676
▁months	-8.9588
▁month	-8.95986
▁faisle	-8.9613
▁few	-8.96194
▁maine	-8.96195
▁maa	-8.96214
▁decided	-8.9622
▁sonia	-8.9622
▁pic	-8.96232
▁gend	-8.9627
▁best	-8.96441
ke	-8.96449
▁able	-8.96459
▁lagata	-8.96464
▁website	-8.96539
▁agle	-8.96554
▁official	-8.96608
▁shuruyaat	-8.96685
▁daawa	-8.96695
▁priyanka	-8.96746
▁politics	-8.96839
▁milane	-8.97019
▁raajnneetik	-8.9706
▁died	-8.97173
▁fire	-8.97241
▁father	-8.97281
▁maujuud	-8.97318
▁form	-8.97433
▁different	-8.97437
▁saaf	-8.97467
▁foreign	-8.97563
▁cannot	-8.97625
▁mp	-8.97643
▁west	-8.97827
▁teji	-8.98147
▁uskaa	-8.98176
▁saansad	-8.98243
▁wickets	-8.98257
▁down	-8.98266
▁december	-8.98281
▁lagane	-8.98408
▁off	-8.98519
▁trump	-8.98612
▁kadam	-8.98797
▁companies	-8.9902
▁kaarykram	-8.99098
▁related	-8.99098
▁deshon	-8.99175
▁mudde	-8.99445
▁vot	-8.99572
▁making	-8.99682
▁sho	-8.99963
▁open	-9.00015
▁acha	-9.00212
▁hamane	-9.00249
▁yani	-9.00333
▁body	-9.0039
▁announced	-9.00487
▁photo	-9.00494
▁sutron	-9.00608
▁among	-9.00687
▁pari	-9.00736
▁hona	-9.00869
▁ummidavaar	-9.00884
▁jate	-9.00958
▁win	-9.00964
▁candidates	-9.00982
▁justice	-9.01022
▁august	-9.01164
▁friday	-9.01277
r	-9.01406
▁wrote	-9.01455
▁level	-9.01558
▁vidhayak	-9.01593
▁cabinet	-9.01847
▁vijay	-9.01959
▁’’	-9.01965
▁khaas	-9.01998
▁face	-9.02082
▁conference	-9.02138
▁lage	-9.02598
▁old	-9.02766
▁actor	-9.03037
▁land	-9.03122
▁nagar	-9.03131
▁once	-9.03148
▁start	-9.03166
▁back	-9.03195
▁card	-9.03497
▁africa	-9.03577
▁31	-9.0358
▁dekha	-9.03775
▁farmers	-9.03899
▁sake	-9.04025
▁shuukravaar	-9.04192
2	-9.04207
▁jisase	-9.04297
▁parliament	-9.04298
▁khatm	-9.04356
▁pani	-9.04403
▁padaa	-9.04409
▁half	-9.0449
▁tuesday	-9.04524
▁sangh	-9.04565
▁sibiai	-9.04789
▁school	-9.04875
▁kapoor	-9.04875
▁mother	-9.05042
y	-9.05151
▁bacchon	-9.05204
▁price	-9.05336
▁hindu	-9.05394
▁lost	-9.05415
▁tej	-9.0547
▁karke	-9.05541
▁gambhir	-9.05627
▁mangalvaar	-9.05638
▁week	-9.05698
▁votes	-9.05763
▁without	-9.05774
▁january	-9.05837
▁getting	-9.05854
▁haath	-9.05898
▁rah	-9.05962
▁issued	-9.05991
▁innings	-9.06028
▁written	-9.06079
▁shaadi	-9.06089
h	-9.063
▁co	-9.06395
▁end	-9.06477
▁minute	-9.06536
▁change	-9.06686
g	-9.06765
▁kapil	-9.06771
▁60	-9.06779
▁candidate	-9.06972
"	-9.0703
▁september	-9.07311
▁dollar	-9.07613
▁pariksha	-9.07629
▁rakhane	-9.07765
▁yogi	-9.07901
▁vyakti	-9.0791
▁bane	-9.07938
▁press	-9.07951
▁kaise	-9.07976
▁working	-9.07996
▁medical	-9.08028
▁wednesday	-9.08045
▁morning	-9.08368
▁act	-9.08522
▁buudhvaar	-9.08529
▁waapas	-9.08567
▁became	-9.08643
1	-9.08682
▁tax	-9.08727
▁sunwaayee	-9.089
▁wife	-9.09022
▁love	-9.09033
▁hindi	-9.09077
▁whether	-9.09215
▁university	-9.09235
▁director	-9.09258
▁hamalaa	-9.0934
▁sensex	-9.09493
▁ghoshnaa	-9.09543
it	-9.10036
▁entire	-9.10294
▁35	-9.10386
▁2.	-9.10504
▁chukaa	-9.10524
▁samiti	-9.10556
▁varisht	-9.10622
▁thursday	-9.10706
▁salman	-9.10786
▁stock	-9.10833
▁siton	-9.10967
▁raajnneeti	-9.1104
▁ago	-9.11276
▁sthit	-9.1129
▁peeche	-9.1141
▁actress	-9.11494
▁health	-9.11513
▁sansad	-9.11596
▁mahilaon	-9.116
▁sachin	-9.11771
▁terrorists	-9.11887
▁filed	-9.11941
▁great	-9.12078
▁rate	-9.12128
▁notice	-9.12158
▁pita	-9.12252
▁mana	-9.12286
▁everyone	-9.12322
▁story	-9.12393
▁sp	-9.12488
▁giving	-9.12524
▁run	-9.12527
▁mishra	-9.12683
▁maukey	-9.12742
▁29	-9.12792
▁rape	-9.12949
▁smartphone	-9.12979
▁giravat	-9.13153
▁meet	-9.13175
▁view	-9.13234
▁october	-9.13311
▁sambandh	-9.13396
▁recently	-9.13449
▁e	-9.13484
▁manmohan	-9.13505
▁force	-9.13575
▁sthaan	-9.13739
▁patr	-9.14018
▁pahunche	-9.14118
▁dur	-9.14248
▁each	-9.14262
▁shikaayat	-9.14288
▁chalaa	-9.14326
▁skool	-9.14329
▁seemaa	-9.14337
▁too	-9.14445
▁bina	-9.14539
▁areas	-9.14608
▁alleged	-9.14869
▁players	-9.14965
▁vishwa	-9.14967
▁cm	-9.15038
▁jaaenge	-9.15154
▁business	-9.15168
▁films	-9.1519
▁letter	-9.15262
▁sunday	-9.15351
▁dhyaan	-9.15398
▁dena	-9.15469
▁data	-9.15545
▁mulaakaat	-9.1556
▁need	-9.1566
▁visit	-9.15741
▁keval	-9.15778
▁waalon	-9.15796
▁patni	-9.15825
▁program	-9.15879
▁clear	-9.1588
▁ank	-9.15923
▁bal	-9.16081
20	-9.16148
kar	-9.16315
▁sahi	-9.16326
▁shiv	-9.16433
▁dekhne	-9.1647
▁videsh	-9.16471
▁seven	-9.165
▁khilaadi	-9.16685
▁major	-9.16724
▁unase	-9.1678
▁plan	-9.16971
▁chalate	-9.17193
4	-9.17208
▁soshal	-9.17236
ta	-9.17379
▁ghante	-9.17524
▁saat	-9.17702
ji	-9.17785
▁strong	-9.17832
▁terrorist	-9.17892
▁yet	-9.17923
▁guuruuvaar	-9.17975
▁hours	-9.17977
▁shahar	-9.18277
▁naa	-9.18362
▁men	-9.1839
▁70	-9.18407
▁cases	-9.18458
▁jald	-9.18478
▁star	-9.18572
▁saturday	-9.18733
▁maidan	-9.18955
▁note	-9.19008
▁doing	-9.19021
▁ravivaar	-9.19037
▁dakshin	-9.19146
▁pehla	-9.19475
▁disambar	-9.19489
▁haar	-9.19739
▁sadsy	-9.19797
▁kolkata	-9.19815
▁jude	-9.19944
he	-9.20129
▁matches	-9.20145
▁shanivaar	-9.20169
▁met	-9.20263
▁line	-9.20277
,"	-9.20413
▁keep	-9.20485
▁yachika	-9.20506
▁rajyon	-9.20519
▁february	-9.20639
▁bas	-9.20662
▁put	-9.20683
▁bangladesh	-9.20776
▁antim	-9.20888
▁victim	-9.21008
▁away	-9.21075
▁campaign	-9.21078
▁acchhee	-9.21204
▁rohit	-9.21422
▁think	-9.21427
▁salmaan	-9.21469
▁soochna	-9.21506
▁ghayal	-9.2152
▁viral	-9.21722
▁closed	-9.22036
▁chennai	-9.22182
▁behad	-9.22195
▁ladki	-9.22233
▁border	-9.22266
▁baari	-9.22575
▁vishesh	-9.22583
3	-9.22591
▁hearing	-9.22635
▁live	-9.22724
▁himself	-9.22738
▁magar	-9.22779
▁full	-9.22905
▁own	-9.22949
▁bhai	-9.23038
▁control	-9.23057
▁child	-9.23088
▁arun	-9.23134
▁near	-9.23394
▁aatanki	-9.23456
▁capital	-9.23598
▁taaki	-9.23614
▁45	-9.23629
▁results	-9.23746
▁things	-9.23748
u	-9.23908
▁relies	-9.23928
▁reports	-9.24053
▁governor	-9.24079
▁jise	-9.24137
▁together	-9.24257
ka	-9.24379
▁kept	-9.24414
▁yoga	-9.2449
▁upi	-9.2452
▁behatar	-9.24533
▁mandir	-9.24556
▁talk	-9.2461
▁launch	-9.24646
▁registered	-9.24807
▁companiyon	-9.25156
▁hamaari	-9.2522
▁shooting	-9.25292
▁umr	-9.25444
▁patna	-9.25449
▁murder	-9.25581
▁agast	-9.25767
▁janvari	-9.25878
▁philhal	-9.26055
main	-9.26066
▁better	-9.26068
▁food	-9.26068
▁finance	-9.26505
▁playing	-9.26709
▁instagram	-9.26746
▁local	-9.26772
▁temple	-9.26848
▁lagu	-9.26884
▁lagi	-9.27006
▁aarthik	-9.27192
▁vichaar	-9.27213
▁mayawati	-9.27412
▁bhoomika	-9.27419
▁mla	-9.27446
▁wants	-9.27452
▁mukherjee	-9.275
▁never	-9.27838
▁based	-9.2793
▁gauratlab	-9.2799
▁kisaanon	-9.27991
▁2013	-9.28022
▁vitt	-9.2811
▁youth	-9.28243
▁abhiyaan	-9.28313
▁kah	-9.28371
▁sinha	-9.2844
▁bhar	-9.28446
al	-9.28477
▁happy	-9.28491
▁mohammad	-9.28607
pm	-9.28646
▁always	-9.28693
▁kapur	-9.28701
▁demand	-9.28726
▁das	-9.28758
▁milakar	-9.28835
▁darasal	-9.2896
▁reason	-9.29015
▁head	-9.29087
7	-9.2912
▁karegi	-9.2914
▁talking	-9.29221
▁chaatro	-9.29266
▁paise	-9.29386
▁ball	-9.29505
▁80	-9.29646
▁antarrashtriya	-9.29697
▁fast	-9.29913
▁sri	-9.30042
▁cese	-9.30059
▁lag	-9.30255
▁seva	-9.30291
▁rajnath	-9.30359
▁game	-9.30408
▁lagbhag	-9.30496
▁thik	-9.3052
▁already	-9.30735
▁badal	-9.30807
▁sitambar	-9.30834
▁keemat	-9.31027
5	-9.31108
▁baavjood	-9.3119
wein	-9.31243
▁bachche	-9.31273
▁process	-9.31276
▁obama	-9.31337
▁prastaav	-9.3145
6	-9.31513
▁chairman	-9.31532
▁condition	-9.31676
▁bani	-9.317
▁considered	-9.31898
▁gathbandhan	-9.31926
▁saamana	-9.31958
▁caught	-9.32068
▁education	-9.3212
na	-9.32155
▁majboot	-9.32173
▁cup	-9.32216
▁despite	-9.32279
▁questions	-9.32303
en	-9.32341
▁thing	-9.3241
▁rukh	-9.32476
▁sanghathan	-9.32523
▁express	-9.32523
▁problem	-9.3288
▁release	-9.33013
▁north	-9.33163
▁deal	-9.33195
▁named	-9.3324
▁class	-9.33253
▁account	-9.33298
▁balls	-9.33399
▁result	-9.33497
▁galat	-9.33504
▁date	-9.33511
▁cap	-9.33519
▁alliance	-9.33593
▁ahm	-9.33596
▁stop	-9.3374
▁kerala	-9.33876
▁chidambaram	-9.33878
▁kal	-9.33931
▁large	-9.34122
▁daughter	-9.34126
▁tiwari	-9.34207
▁meri	-9.34269
▁ministers	-9.34277
l	-9.34609
er	-9.34637
ki	-9.34656
▁anna	-9.3467
▁budget	-9.34703
ek	-9.34766
▁currently	-9.34906
▁hyderabad	-9.34986
▁rail	-9.35094
▁further	-9.35125
▁mukaable	-9.35147
▁poor	-9.35171
▁3.	-9.35283
▁kahin	-9.35451
▁samet	-9.35483
▁voting	-9.35503
▁trying	-9.35552
▁jharkhand	-9.35646
▁workers	-9.35779
▁look	-9.35803
▁banerjee	-9.35926
▁barish	-9.35946
▁vyavastha	-9.35997
▁anti	-9.36034
▁paksh	-9.36096
▁nuksaan	-9.36309
▁gold	-9.36356
▁aath	-9.36765
▁organization	-9.36844
▁economic	-9.36917
▁baba	-9.36988
▁corruption	-9.37047
▁petrol	-9.37126
0	-9.37166
▁shaam	-9.37276
▁camera	-9.37337
▁defense	-9.37367
▁chaatr	-9.3744
▁meanwhile	-9.37623
▁lagaae	-9.37742
▁tv	-9.37762
▁32	-9.37854
▁vivaad	-9.37866
▁within	-9.37936
▁tareeke	-9.3794
▁sajaa	-9.38078
▁officers	-9.38114
▁prayaas	-9.382
▁aapke	-9.38272
▁badlaav	-9.38316
▁project	-9.38518
▁policy	-9.38534
▁service	-9.38558
▁event	-9.38739
▁usase	-9.38758
▁outside	-9.38764
▁raised	-9.38765
9	-9.3878
8	-9.38808
▁significantly	-9.38867
▁coach	-9.38921
▁mauka	-9.38935
▁bachchan	-9.38965
▁forces	-9.39003
▁mamata	-9.39018
▁doctor	-9.39059
▁jaruri	-9.39211
▁akshay	-9.39435
▁hameshaa	-9.39501
@	-9.39528
▁song	-9.39571
▁dekhte	-9.39694
▁da	-9.39719
▁behind	-9.39808
▁netritv	-9.39824
▁karaane	-9.39857
▁farvari	-9.40087
▁itnaa	-9.40093
▁bajet	-9.40273
▁regarding	-9.40273
▁karaayaa	-9.40458
▁petition	-9.4057
▁nayaa	-9.4061
▁satta	-9.4065
▁4.	-9.40709
▁chhattisgarh	-9.40743
▁ready	-9.40761
▁dekh	-9.40838
▁shahid	-9.4096
▁sahit	-9.41026
▁amitabh	-9.41062
▁raksha	-9.41103
▁samaaj	-9.41143
▁prakriya	-9.41147
▁free	-9.41199
▁kathith	-9.4121
▁victory	-9.41533
▁headline	-9.41626
▁rahete	-9.41716
▁sabit	-9.41757
▁bete	-9.4176
▁pravaktaa	-9.41798
▁karegaa	-9.41827
▁airport	-9.42098
▁accident	-9.42116
▁maamalon	-9.42224
gb	-9.42266
▁grih	-9.42278
▁hotel	-9.4228
▁bhrashtachar	-9.42312
ti	-9.42313
▁age	-9.42837
▁young	-9.42844
▁strike	-9.42903
▁der	-9.42907
▁90	-9.42935
▁paaya	-9.43096
ni	-9.43172
▁tendulkar	-9.43365
▁current	-9.43384
▁satr	-9.43508
▁usee	-9.43511
▁brought	-9.43514
▁roak	-9.43726
▁student	-9.43739
hedline	-9.43788
▁nijee	-9.43791
▁kaarobaar	-9.43895
ly	-9.43961
▁dhan	-9.44178
▁sthaneey	-9.44252
▁sachiv	-9.44334
▁issues	-9.44338
▁technology	-9.44374
ar	-9.4457
▁mahatvapurn	-9.44598
▁poocha	-9.44719
▁anand	-9.44804
▁ajay	-9.4488
▁don	-9.44927
▁defeated	-9.44936
▁pay	-9.45019
▁mlas	-9.45037
▁council	-9.45087
▁basis	-9.45099
▁jaan	-9.45192
▁administration	-9.4536
▁close	-9.45365
▁expected	-9.45429
▁beti	-9.45442
▁sanyukt	-9.45473
▁shiksha	-9.45653
▁examination	-9.45686
▁asar	-9.46008
▁75	-9.46106
veen	-9.46127
▁happened	-9.46224
▁ashok	-9.46315
▁2012	-9.46437
▁degree	-9.46488
▁matdaan	-9.46638
▁fact	-9.47173
▁jivan	-9.47221
news	-9.47311
▁tried	-9.47332
▁leave	-9.47615
▁reported	-9.47616
▁vipaksh	-9.47616
▁known	-9.47633
▁jaisi	-9.4764
▁vimaan	-9.47703
▁raay	-9.47804
▁black	-9.47947
▁claimed	-9.47967
man	-9.47978
▁chahta	-9.48079
▁industry	-9.48159
ham	-9.48224
▁pdt	-9.48438
▁siries	-9.48826
▁assam	-9.48881
▁prabhavit	-9.48907
▁gupta	-9.48917
▁yadi	-9.48965
▁million	-9.49009
▁charge	-9.49102
▁return	-9.49185
▁rajdhani	-9.49309
▁society	-9.49324
c	-9.49341
▁expressed	-9.49353
▁krishna	-9.49384
▁war	-9.49419
▁maare	-9.49502
▁box	-9.49542
▁andar	-9.49553
▁shot	-9.49556
▁pasand	-9.49574
▁aakhri	-9.49582
▁small	-9.49647
▁towards	-9.49659
▁reach	-9.4995
▁twitor	-9.49953
▁ranon	-9.50108
▁bring	-9.50122
b	-9.50152
▁member	-9.50159
▁super	-9.50186
▁0.	-9.50242
▁revealed	-9.5025
▁daur	-9.50265
▁spot	-9.50298
▁uttarakhand	-9.50334
▁korea	-9.50399
da	-9.50418
▁eight	-9.5045
▁tikat	-9.50476
▁tasviir	-9.50478
▁fight	-9.50488
▁vote	-9.50609
▁siten	-9.50663
▁metro	-9.50691
▁tisare	-9.50777
▁dr	-9.50916
▁book	-9.50988
▁financial	-9.5099
▁kahani	-9.51038
▁inamen	-9.51185
▁pahunchane	-9.51213
▁banks	-9.51252
▁ground	-9.51266
▁believe	-9.51393
▁lead	-9.51473
▁kami	-9.51496
▁complaint	-9.51525
pur	-9.51613
▁inkaar	-9.51642
▁dhawan	-9.51664
▁afghanistan	-9.5183
▁200	-9.51847
▁room	-9.51899
▁nirmaan	-9.51911
▁comes	-9.51978
▁sapa	-9.5201
▁500	-9.52021
▁prashasan	-9.52039
▁shandaar	-9.52065
▁dekar	-9.52161
▁maujuuda	-9.52279
▁karan	-9.52434
▁online	-9.52435
▁nyaayalay	-9.5247
▁session	-9.525
▁private	-9.52552
▁maichon	-9.52571
▁job	-9.52692
▁anil	-9.52895
▁jameen	-9.52923
▁response	-9.53031
▁swaraj	-9.53191
▁pahchaan	-9.53554
▁mushkil	-9.53702
▁pati	-9.53708
▁united	-9.5381
▁al	-9.53815
▁kharaab	-9.53892
▁research	-9.54067
▁andhra	-9.54084
▁1,	-9.54196
▁adhikaar	-9.54197
▁firing	-9.5421
▁picture	-9.54233
▁mind	-9.54405
▁upar	-9.54455
▁read	-9.54563
▁varshiya	-9.54605
▁chaahati	-9.54642
▁bijli	-9.54785
▁allegations	-9.5484
▁5.	-9.54878
▁suicide	-9.54887
▁dance	-9.54909
▁aag	-9.55016
▁arab	-9.55065
▁tata	-9.55149
▁dalit	-9.55168
▁bhartee	-9.55186
▁raj	-9.55321
▁chunauti	-9.55417
▁poochtacha	-9.55525
▁whole	-9.5557
▁apil	-9.55581
▁vruddhi	-9.55645
▁survey	-9.55775
▁performance	-9.55798
▁less	-9.55884
▁places	-9.55888
▁aamir	-9.56091
p	-9.56101
▁occasion	-9.56238
▁dalon	-9.5626
▁internet	-9.56321
▁relationship	-9.56354
▁growth	-9.56406
▁filmon	-9.56473
▁gas	-9.56701
▁deepika	-9.5687
▁interest	-9.56907
▁koun	-9.56959
▁paidaa	-9.57063
▁si	-9.5711
▁bharti	-9.57188
▁aircraft	-9.57235
▁vibhinn	-9.57252
▁neshnal	-9.57305
▁girls	-9.57539
▁wanted	-9.57694
▁2011	-9.57749
▁tamil	-9.57771
▁involved	-9.57813
▁tivi	-9.57814
▁pi	-9.57839
▁goa	-9.57959
▁baaki	-9.5801
▁chhod	-9.58017
▁sunil	-9.58048
▁violence	-9.58135
▁55	-9.58162
▁rally	-9.583
ya	-9.58301
▁player	-9.58322
▁48	-9.58331
▁brother	-9.58344
▁husband	-9.58412
▁included	-9.58426
▁formed	-9.58465
▁dil	-9.58542
▁although	-9.58596
▁rakhi	-9.58605
▁p	-9.5862
▁language	-9.58635
▁difficult	-9.58668
▁deputy	-9.58676
▁khilaadiyon	-9.58716
▁33	-9.58816
▁fourth	-9.58934
▁ballebaaj	-9.5897
▁sheersh	-9.58978
▁shahrukh	-9.59154
▁sadasyon	-9.59163
▁nishaanaa	-9.59251
▁ankon	-9.59322
▁samaj	-9.59363
▁affairs	-9.59387
▁yojit	-9.5945
▁:	-9.59471
▁possible	-9.59657
▁aate	-9.59724
▁various	-9.60002
▁elaan	-9.60147
▁pressure	-9.60267
▁personal	-9.6031
▁responsibility	-9.60454
▁raja	-9.60461
▁bataate	-9.60542
▁36	-9.60629
▁dabaav	-9.60713
▁launched	-9.60724
▁movement	-9.60849
▁hafte	-9.60893
▁prices	-9.61118
▁siem	-9.61181
▁jin	-9.61185
▁someone	-9.61204
▁oil	-9.6129
▁real	-9.61314
▁demanded	-9.614
▁swasthya	-9.61447
▁34	-9.61461
▁limited	-9.61516
▁evening	-9.61536
▁continue	-9.6157
▁income	-9.61586
es	-9.61656
▁nothing	-9.61742
ra	-9.61748
▁hinsa	-9.61808
▁channel	-9.6181
▁building	-9.61815
▁ilaakon	-9.61859
▁doosraa	-9.62088
▁ipl	-9.62094
▁stadium	-9.62122
▁prachaar	-9.62185
▁devi	-9.62195
▁itself	-9.62222
▁0	-9.62328
▁nirdesh	-9.62409
▁soldiers	-9.62524
▁period	-9.62637
▁award	-9.62701
▁jaitley	-9.62744
▁oktober	-9.62752
▁pune	-9.628
▁videshi	-9.62867
▁niti	-9.62867
▁kharch	-9.62876
▁sadak	-9.62943
▁winning	-9.6303
▁gang	-9.63031
▁non	-9.63055
▁anyone	-9.63145
▁services	-9.6326
▁scheme	-9.63317
▁field	-9.6335
▁denge	-9.63586
▁2009	-9.6376
▁asia	-9.63793
▁meraa	-9.63831
▁institute	-9.6384
▁step	-9.63926
▁raily	-9.63949
▁nau	-9.64001
▁target	-9.64192
▁driver	-9.64286
▁chunaavon	-9.64326
▁samasya	-9.64405
▁bhashaa	-9.64422
▁bheja	-9.64443
▁yaad	-9.64496
▁attacked	-9.64518
▁returned	-9.64536
▁maar	-9.64595
▁saptaah	-9.64624
▁vaise	-9.64633
▁facebook	-9.64681
▁britain	-9.64687
apart	-9.6471
kashmir	-9.64797
▁virat	-9.64798
▁living	-9.6483
▁hokar	-9.64931
day	-9.64994
▁ghoshit	-9.65006
▁employees	-9.65095
▁available	-9.65132
▁find	-9.65242
▁safal	-9.65243
▁praapt	-9.65385
▁call	-9.65436
▁jamaa	-9.65513
▁japan	-9.65598
▁fell	-9.65633
yah	-9.657
▁2008	-9.6585
▁hands	-9.65998
▁imran	-9.66044
▁management	-9.66186
▁across	-9.66212
▁uplabdh	-9.66236
▁tweeted	-9.66283
▁thakur	-9.66346
▁anything	-9.66387
▁wrong	-9.66393
▁global	-9.66431
▁taiyaari	-9.66511
▁defeat	-9.66517
▁olympic	-9.66562
▁led	-9.66565
▁worth	-9.66601
▁vishwaas	-9.66635
▁forward	-9.66643
▁increasing	-9.66643
▁fans	-9.66805
▁shivasena	-9.66954
▁changed	-9.67078
▁noida	-9.6714
▁nepal	-9.67161
▁admitted	-9.6717
▁jetali	-9.67311
▁tamaam	-9.67336
▁halaat	-9.67525
▁amount	-9.67555
▁stand	-9.67593
▁o	-9.67671
▁ravi	-9.67867
▁association	-9.67966
▁raahat	-9.68096
yon	-9.68145
▁daure	-9.68276
▁sweekaar	-9.68321
▁exam	-9.68357
▁passed	-9.68388
▁aropiyon	-9.68485
▁neeche	-9.68513
▁nivesh	-9.68719
▁provide	-9.68744
▁opened	-9.68821
▁kahi	-9.6888
▁manoj	-9.6896
▁discussion	-9.6905
▁common	-9.6911
▁something	-9.69152
▁yuva	-9.69168
▁s	-9.69192
▁khaarij	-9.6922
▁cash	-9.69233
▁sharad	-9.69268
▁(0.	-9.69318
▁scam	-9.69349
▁sambhaavna	-9.69399
▁crime	-9.69422
▁completely	-9.69433
▁banaai	-9.69446
▁37	-9.69457
▁re	-9.69461
▁kadi	-9.6951
▁biggest	-9.69563
▁haalat	-9.69588
▁badha	-9.69607
▁42	-9.69672
▁lakshya	-9.69767
▁stopped	-9.69836
▁training	-9.69945
▁history	-9.69947
▁problems	-9.69967
▁vakil	-9.69973
▁human	-9.69982
▁nirnay	-9.69987
▁phayda	-9.70024
▁andolan	-9.70098
▁personnel	-9.70133
▁actually	-9.70172
▁vice	-9.70208
▁relief	-9.70213
▁sharif	-9.70293
▁future	-9.70305
▁charan	-9.70393
▁tel	-9.70396
▁pashchim	-9.7051
▁necessary	-9.70522
▁dikhaai	-9.70774
▁rajyasabha	-9.70778
▁qaraar	-9.70795
▁adityanath	-9.70839
▁gendon	-9.70907
▁community	-9.70913
▁shaks	-9.70939
▁tweet	-9.70967
▁sudhaar	-9.71237
te	-9.71299
▁created	-9.71301
▁bheetar	-9.71312
▁kaaryakartaaon	-9.71324
▁sir	-9.7136
▁es	-9.71386
▁phase	-9.71395
ko	-9.71403
▁understand	-9.71487
▁sadan	-9.71634
▁bench	-9.7178
j	-9.71885
▁manish	-9.71897
▁section	-9.71897
▁badhaane	-9.71996
▁38	-9.72041
▁srilanka	-9.72245
▁b	-9.72258
▁input	-9.72358
▁answer	-9.72401
▁bhaag	-9.72437
▁completed	-9.72498
si	-9.7259
▁overs	-9.72859
▁bsp	-9.72885
▁sammaan	-9.72918
▁investigating	-9.72954
▁lete	-9.73029
▁jimmedaari	-9.73063
india	-9.73116
▁uniwarsity	-9.73181
▁tii	-9.73237
▁banaakar	-9.73285
▁jinamein	-9.73298
▁check	-9.73353
▁include	-9.73368
▁achche	-9.73412
▁chance	-9.73466
alag	-9.73619
▁chopra	-9.7366
▁immediately	-9.73793
▁round	-9.73872
▁lanka	-9.73889
▁believed	-9.7393
▁van	-9.73959
▁65	-9.74117
▁verma	-9.74179
▁protest	-9.74385
▁guru	-9.74444
▁fasebuk	-9.74474
▁mps	-9.74487
▁kisaan	-9.74501
▁whose	-9.74658
▁seeing	-9.74673
▁maananaa	-9.74697
▁google	-9.74782
▁australian	-9.74789
▁ucch	-9.74791
▁parishad	-9.74795
▁kerani	-9.74832
▁talks	-9.74903
▁white	-9.74907
▁istipha	-9.74947
▁vidheyak	-9.74975
▁model	-9.7498
▁heart	-9.74991
▁milegaa	-9.7502
▁reddy	-9.75035
▁running	-9.7509
▁samooh	-9.75145
▁aata	-9.75154
▁quarter	-9.75162
▁late	-9.75292
▁remain	-9.753
▁mahendra	-9.75571
▁dead	-9.75625
▁hon	-9.75706
▁red	-9.75834
▁arrived	-9.75923
▁voters	-9.76229
▁raashtra	-9.76238
▁military	-9.76257
▁6.	-9.76319
▁looking	-9.7636
▁raaj	-9.76429
▁sambandhit	-9.76553
▁2010	-9.76599
▁trade	-9.76622
▁sampark	-9.76629
tippaniyan	-9.76708
▁jawan	-9.76709
▁m	-9.76787
▁saarvajanik	-9.76797
▁detaa	-9.76963
▁screen	-9.7698
re	-9.76981
▁success	-9.77004
▁affected	-9.77079
▁informed	-9.77273
▁aadhaarit	-9.77278
▁laane	-9.77368
▁sheyaron	-9.77648
▁side	-9.77744
▁shav	-9.778
▁jain	-9.77818
▁khadey	-9.7791
▁jaakar	-9.77967
▁laabh	-9.7797
▁viraat	-9.78049
▁nor	-9.78157
or	-9.78193
▁paae	-9.78273
congress	-9.78392
▁joshi	-9.7841
▁minutes	-9.78435
▁k	-9.78463
▁kaary	-9.78464
▁bhej	-9.78779
▁sambodhit	-9.78785
▁removed	-9.78807
▁vidhayakon	-9.78844
▁jinhone	-9.78853
▁chote	-9.78854
▁economy	-9.7894
▁region	-9.78987
▁suresh	-9.79149
▁leadership	-9.79171
▁aavedan	-9.79177
▁point	-9.79293
▁encounter	-9.79383
▁move	-9.79431
▁thane	-9.79434
▁others	-9.79439
▁stay	-9.79501
▁posted	-9.79502
▁stesan	-9.79523
▁single	-9.79566
▁lives	-9.796
▁search	-9.79749
▁aatankwaad	-9.79819
▁operation	-9.79844
di	-9.7988
x	-9.7989
▁loss	-9.79947
bharat	-9.79974
▁jor	-9.79975
w	-9.80047
▁choudhary	-9.80187
▁light	-9.80246
▁7.	-9.80248
▁questioned	-9.80257
▁vanade	-9.80375
▁dikh	-9.80432
▁goli	-9.80533
▁seems	-9.80602
▁hiraasat	-9.80624
▁tabhi	-9.80666
▁treatment	-9.80783
to	-9.80817
▁sports	-9.80826
▁instead	-9.80847
▁least	-9.80877
▁asian	-9.8097
se	-9.80989
▁chunavi	-9.81044
▁reduced	-9.81051
▁sitting	-9.81144
▁disha	-9.81166
▁bus	-9.81197
▁laal	-9.81317
▁france	-9.81331
▁rights	-9.81409
▁ayodhya	-9.81575
▁ballebaaji	-9.81604
▁commissioner	-9.8161
▁jila	-9.8162
▁century	-9.8168
▁aatankwaadi	-9.817
▁radd	-9.81824
at	-9.81907
▁(1.	-9.8201
▁fours	-9.8201
▁bi	-9.82136
▁44	-9.8216
▁saw	-9.82182
▁beete	-9.82204
do	-9.82232
▁cut	-9.82327
▁career	-9.82342
f	-9.82384
▁terrorism	-9.82387
▁varg	-9.82488
▁vaapasi	-9.82532
▁bail	-9.82535
▁peace	-9.82583
▁jeetne	-9.82616
▁course	-9.82618
▁shanti	-9.82643
▁fund	-9.82703
▁exchange	-9.82778
▁steps	-9.82869
▁ladaai	-9.82879
▁spasht	-9.82954
▁kilometre	-9.83052
▁kirdaar	-9.83185
▁heard	-9.83315
▁dow	-9.8332
▁rain	-9.83413
▁heavy	-9.83414
▁past	-9.8354
▁allowed	-9.83635
▁message	-9.83637
▁vishvavidhyalay	-9.8365
▁d	-9.83773
▁mudda	-9.83794
▁usamen	-9.83905
▁british	-9.83933
▁becoming	-9.83946
▁bcci	-9.83965
▁muddon	-9.83995
▁civil	-9.84012
▁39	-9.84052
▁happen	-9.84209
▁rules	-9.84212
▁paisa	-9.8431
▁bheed	-9.8432
▁marriage	-9.8448
▁karmchaariyon	-9.8449
▁must	-9.84492
▁jan	-9.84531
▁trust	-9.84554
▁ilaaj	-9.84646
▁challenge	-9.84684
▁built	-9.84714
▁pandey	-9.84727
▁malik	-9.84738
▁directed	-9.84761
▁recorded	-9.84777
▁dharm	-9.84787
▁aaropon	-9.84915
▁gone	-9.84996
▁mata	-9.85
bjp	-9.85053
▁bharatiya	-9.85118
▁zikr	-9.85144
▁aati	-9.85151
▁rakh	-9.85153
▁position	-9.85171
▁evidence	-9.85175
▁itihaas	-9.85201
▁watch	-9.85293
▁arrest	-9.85353
▁doctors	-9.85399
▁bainkon	-9.85422
▁friends	-9.85468
▁naukari	-9.85484
▁dev	-9.85506
▁chintaa	-9.85579
▁tippanee	-9.85602
▁r	-9.85617
▁married	-9.85625
▁grand	-9.85707
▁shankar	-9.85782
▁jataai	-9.85796
▁serious	-9.85848
▁gst	-9.85853
▁ganga	-9.85965
▁camp	-9.86121
▁honi	-9.86143
▁feel	-9.86172
▁style	-9.86269
▁mausam	-9.86277
▁pranab	-9.86309
▁samudaay	-9.86318
▁hard	-9.86388
▁haathon	-9.86408
▁jiskaa	-9.86459
▁recovered	-9.86482
▁pyaar	-9.86506
▁parliamentary	-9.8652
▁jaisaa	-9.86548
▁discussed	-9.86577
▁cr	-9.8661
▁jadeja	-9.86635
▁reserve	-9.86639
▁chinese	-9.86706
(	-9.86818
▁hope	-9.86931
▁benefit	-9.86939
▁uthaaya	-9.87002
st	-9.87021
▁sammelan	-9.87068
▁41	-9.87069
▁sahyog	-9.87099
la	-9.87359
▁contest	-9.87399
▁hoicourt	-9.87444
▁friend	-9.87468
▁relations	-9.87537
▁ticket	-9.87687
▁feet	-9.87703
▁swami	-9.87704
▁lucknow	-9.87721
▁inside	-9.87814
▁puja	-9.87821
▁aayojan	-9.87879
▁fir	-9.87884
▁declared	-9.87903
▁kariyar	-9.87947
▁teenon	-9.87995
▁43	-9.88014
▁47	-9.88252
▁agreement	-9.88275
▁paper	-9.88278
▁51	-9.88281
▁pahunchi	-9.88345
▁production	-9.88364
▁suchi	-9.88446
▁ajit	-9.88496
▁jisaki	-9.88566
▁english	-9.8858
▁c	-9.88644
▁jal	-9.88696
▁doshi	-9.88725
▁prakaar	-9.88761
▁staff	-9.88793
▁saare	-9.88824
▁bharosa	-9.88845
▁dutt	-9.88849
▁jodi	-9.88922
▁tex	-9.88947
▁highest	-9.88985
▁matlab	-9.89006
▁naidu	-9.8906
▁shri	-9.89076
▁corporation	-9.8911
sa	-9.89135
▁rule	-9.89172
▁park	-9.89321
▁aatankiyon	-9.89382
▁bat	-9.89392
▁paar	-9.89539
ri	-9.89583
▁ummidavaaron	-9.89711
▁refused	-9.89812
▁hamaara	-9.89861
▁angry	-9.89927
▁tour	-9.89962
▁fake	-9.89979
▁pro	-9.90011
▁aakhir	-9.90025
▁efforts	-9.90041
v	-9.90064
▁index	-9.9007
▁shaayad	-9.90103
▁stars	-9.90203
▁samaaroh	-9.90221
▁cricketer	-9.90301
▁jindagi	-9.90343
▁posts	-9.90379
▁chauke	-9.90435
▁season	-9.90471
▁complete	-9.9048
▁daakhil	-9.90501
▁spokesperson	-9.90551
▁medal	-9.90572
▁bhavishya	-9.90676
▁nine	-9.90794
▁sampatti	-9.90813
▁names	-9.91146
▁baithe	-9.91215
▁kshetron	-9.91227
▁pahunchaa	-9.91235
▁inhen	-9.91301
▁vehicles	-9.91386
▁ap	-9.91411
▁sit	-9.91507
▁property	-9.9153
▁itani	-9.91536
▁pai	-9.91582
▁nda	-9.91689
ane	-9.91737
▁lenaa	-9.91775
▁saamaanya	-9.91781
▁khub	-9.91872
▁56	-9.91906
▁study	-9.91975
▁manjuuri	-9.92004
▁peedit	-9.92015
▁billion	-9.92057
▁gautam	-9.92111
▁sansadeey	-9.92283
▁dam	-9.92291
▁associated	-9.92316
▁speech	-9.92319
▁52	-9.92329
▁therefore	-9.92402
▁bananaa	-9.9243
▁maane	-9.92437
le	-9.92539
▁upa	-9.92595
▁ordered	-9.92604
▁kamai	-9.92608
▁east	-9.92712
li	-9.92731
▁rupye	-9.92763
▁64	-9.92875
▁teachers	-9.93002
▁varanasi	-9.93013
▁parents	-9.93065
▁monsoon	-9.93086
▁successful	-9.93131
▁judge	-9.93159
▁shatak	-9.93178
▁khilne	-9.93184
▁len	-9.93226
▁kings	-9.93234
▁cell	-9.93276
▁blast	-9.93279
▁intelligence	-9.93297
▁attacks	-9.93301
▁sari	-9.93433
▁famous	-9.93473
▁khulaasa	-9.93504
▁odi	-9.93538
▁batsman	-9.93584
▁save	-9.93584
▁raashi	-9.93669
▁schools	-9.93709
▁interview	-9.93736
▁saalon	-9.93797
▁lakhanu	-9.93944
▁reliance	-9.94
▁mahasoos	-9.94069
▁virdohi	-9.94121
▁regard	-9.9415
▁nitin	-9.94391
▁games	-9.94395
▁tulana	-9.94452
▁care	-9.94452
▁ipel	-9.94458
▁jarur	-9.9448
▁recent	-9.94589
▁auto	-9.9472
▁bhopal	-9.94722
▁pair	-9.94768
▁khush	-9.94887
▁joint	-9.94914
▁god	-9.94922
▁surakshit	-9.94923
▁pst	-9.95009
▁offis	-9.9507
▁constitution	-9.95197
▁ant	-9.95238
▁khabaron	-9.95247
▁sara	-9.95278
▁bhaashan	-9.95298
▁jai	-9.95312
▁reporters	-9.9538
▁digvijay	-9.95432
ve	-9.9549
▁baaten	-9.9551
▁rakhte	-9.95578
▁km	-9.95582
▁anumati	-9.95695
▁46	-9.95729
▁49	-9.95812
▁300	-9.95837
▁raina	-9.95855
▁intjaar	-9.95867
▁teacher	-9.95908
▁jaipur	-9.95941
▁dismissed	-9.95952
▁notebandi	-9.95955
▁talash	-9.95955
▁inflation	-9.95973
▁2,	-9.96052
▁huge	-9.96142
▁bam	-9.96275
▁jaahir	-9.96323
▁poster	-9.9639
▁manohar	-9.96396
▁everything	-9.96436
▁stage	-9.96438
▁chale	-9.96456
▁professor	-9.96504
▁padi	-9.96527
▁kaaryakarta	-9.9658
▁jamaanat	-9.96637
▁cost	-9.96641
▁aadhikarik	-9.96661
▁speed	-9.96741
▁construction	-9.96767
▁judi	-9.96791
▁ulanghan	-9.96807
▁sandesh	-9.96854
▁birthday	-9.9699
▁investment	-9.96997
▁rokane	-9.97115
▁mohan	-9.97154
▁naagarik	-9.97216
▁arthvyavastha	-9.97245
▁panchayat	-9.9735
▁bacchee	-9.97425
de	-9.97425
▁narayan	-9.97444
▁milegi	-9.97464
▁american	-9.97495
▁low	-9.97602
▁shown	-9.9768
▁acting	-9.97682
▁demonetisation	-9.9772
▁sought	-9.9776
▁paane	-9.9784
▁gharelu	-9.9794
▁nehru	-9.97954
▁chali	-9.97968
▁puraane	-9.97975
▁vahi	-9.97998
▁mat	-9.98008
▁58	-9.98059
▁taarikh	-9.98131
▁baraamad	-9.9821
▁himachal	-9.9822
▁samvidhan	-9.9823
▁indians	-9.9834
▁ten	-9.98376
▁ask	-9.98379
▁dispute	-9.9838
▁badhat	-9.9839
▁jaanate	-9.98435
▁tiger	-9.98437
▁gaiyr	-9.98444
▁varun	-9.98529
▁worked	-9.98571
▁abhishek	-9.98573
▁rajyapal	-9.98623
saath	-9.98691
▁ramdev	-9.98715
pakistan	-9.98726
▁samaapt	-9.9873
▁incidents	-9.98771
▁rang	-9.9879
▁ahead	-9.98854
▁lagaai	-9.98894
▁toornament	-9.98914
▁families	-9.99038
▁shares	-9.99042
▁pravesh	-9.99067
▁54	-9.99144
▁niyantran	-9.99153
▁lambey	-9.99161
▁needs	-9.99166
-20	-9.9922
▁teams	-9.99232
▁try	-9.99233
▁uthaa	-9.99351
▁turant	-9.99411
▁tainaat	-9.99412
▁smith	-9.99417
▁chaudhary	-9.99443
▁boss	-9.99532
▁voice	-9.9961
▁vipakshi	-9.99657
▁districts	-9.99703
▁dikhaaya	-9.99719
▁kind	-9.99761
▁rahegaa	-9.99788
▁unamem	-9.99836
▁kare	-9.99862
▁sahyogi	-9.99893
▁jamkar	-9.99912
▁pareshaan	-9.99972
▁rahati	-10.0007
▁zyaadaatar	-10.0007
▁mark	-10.0008
▁previous	-10.0018
▁daayar	-10.0043
▁shukla	-10.0046
if	-10.0052
▁paa	-10.0052
▁similar	-10.0058
aap	-10.0062
▁file	-10.0065
▁madhyam	-10.0072
▁network	-10.0087
▁aparaadh	-10.0091
▁odisha	-10.0091
▁iran	-10.01
▁aalochana	-10.0101
▁batting	-10.0111
▁u	-10.0116
▁dekhakar	-10.0122
▁largest	-10.0127
▁safalataa	-10.0129
▁mulayam	-10.0133
▁jinhen	-10.0141
▁kis	-10.0146
▁cinema	-10.0155
▁khadaa	-10.0159
▁dhara	-10.0164
▁rai	-10.0168
▁notes	-10.017
▁short	-10.0171
▁scheduled	-10.0173
▁soch	-10.0181
▁means	-10.0187
▁justise	-10.0194
▁puraskaar	-10.0194
▁bachaav	-10.02
▁hardik	-10.0204
▁pratikriya	-10.0206
▁sushma	-10.0212
▁david	-10.0212
▁shikaar	-10.0223
▁mulaayam	-10.0228
▁saamaajik	-10.0242
▁karyaalay	-10.0244
▁ranbir	-10.0244
ye	-10.0245
▁conducted	-10.0252
▁sikh	-10.0257
▁behalf	-10.0257
▁nadu	-10.0267
▁atirikt	-10.027
▁entry	-10.027
▁targeted	-10.0278
▁gopal	-10.0283
▁unit	-10.0288
▁peedita	-10.0289
▁address	-10.0313
▁bangalore	-10.0319
▁tournament	-10.0334
▁population	-10.0336
▁following	-10.0339
▁especially	-10.034
▁festival	-10.0345
▁passengers	-10.0347
▁partner	-10.0349
▁article	-10.035
▁send	-10.0355
▁aasaan	-10.036
▁kiran	-10.0361
▁rjd	-10.0365
▁haadase	-10.0374
▁bike	-10.0379
▁ahmedabad	-10.0382
▁newspaper	-10.0382
▁sa	-10.0391
▁puche	-10.0396
▁eyes	-10.0405
▁dekhnaa	-10.0407
▁proposal	-10.0418
▁indira	-10.042
▁bahes	-10.042
▁wedding	-10.0423
▁indies	-10.0423
▁vishay	-10.0423
▁review	-10.0426
▁cameti	-10.043
▁rest	-10.0435
▁category	-10.0443
▁ghotaale	-10.0448
▁early	-10.045
▁organized	-10.0454
▁favor	-10.0461
▁5,	-10.0461
▁decide	-10.0463
▁chandra	-10.0469
▁manch	-10.0469
▁helicopter	-10.047
▁dost	-10.0477
▁gendbaaj	-10.048
▁moment	-10.0497
▁electricity	-10.0509
▁150	-10.0509
▁dobaaraa	-10.0514
▁daily	-10.0514
▁rahata	-10.0516
▁deepak	-10.052
▁sun	-10.0521
▁added	-10.0523
▁maahaul	-10.0528
▁muqabla	-10.0534
▁mahaj	-10.0536
▁rahenge	-10.0538
▁kahaan	-10.0542
▁charges	-10.0557
▁daura	-10.0561
▁provided	-10.0566
▁samaajawaadee	-10.0584
▁joined	-10.0592
▁pavilion	-10.0601
▁ru	-10.0602
▁spread	-10.0609
▁site	-10.0621
▁remained	-10.0621
▁chini	-10.063
▁li	-10.0631
▁popular	-10.0638
▁lal	-10.0645
▁rajeev	-10.0655
▁yuvak	-10.0655
▁fees	-10.0656
▁sankat	-10.0656
▁gendbaaji	-10.0657
▁intervyuu	-10.0662
▁failed	-10.0678
▁dopaher	-10.0678
▁champion	-10.0682
▁sharaab	-10.0684
▁claim	-10.0684
▁customers	-10.0684
▁continued	-10.0693
▁bhale	-10.0696
▁cities	-10.0703
▁n	-10.0704
▁pension	-10.0707
▁status	-10.0708
▁pictures	-10.0719
▁85	-10.0719
▁speaker	-10.072
▁nigam	-10.0723
▁muslims	-10.0729
▁nideshak	-10.073
▁lawyer	-10.0746
▁pratap	-10.0749
▁controversy	-10.0759
▁science	-10.0769
▁trophy	-10.0769
▁aapaki	-10.0774
▁speaking	-10.0777
▁diwas	-10.078
▁terms	-10.0782
▁join	-10.0783
▁hawaii	-10.0784
▁karai	-10.0794
▁prakaash	-10.0799
▁mantriyon	-10.0808
▁block	-10.0812
▁zealand	-10.0817
▁hisaab	-10.0818
▁2000	-10.0827
▁miltaa	-10.0828
▁showed	-10.0829
▁character	-10.0835
▁hindustan	-10.0842
▁https	-10.0851
▁duty	-10.0862
ai	-10.0864
▁kshamta	-10.087
▁hold	-10.0871
▁river	-10.0872
▁meter	-10.0873
▁kara	-10.0878
▁additional	-10.088
▁samajwadi	-10.0883
▁partnership	-10.0891
▁//	-10.0892
▁apply	-10.0899
▁donald	-10.09
▁udhar	-10.0907
▁em	-10.0911
▁srinagar	-10.0925
▁agenda	-10.0929
▁digital	-10.0929
://	-10.0933
▁boy	-10.0941
▁karj	-10.0947
▁detii	-10.0948
▁janm	-10.0951
▁alert	-10.0952
▁inke	-10.0955
▁rigerv	-10.0959
▁quite	-10.0959
▁conversation	-10.096
▁jaaen	-10.0962
▁strength	-10.0967
▁killing	-10.0975
▁anumaan	-10.0975
▁ramesh	-10.0999
no	-10.1002
▁8.	-10.1003
▁prepared	-10.1007
▁sangharsh	-10.1022
▁committed	-10.103
▁53	-10.1033
▁shikhar	-10.1047
▁foundation	-10.1049
▁supporters	-10.1049
▁gol	-10.1049
▁anjaam	-10.1052
▁described	-10.1059
▁upcoming	-10.1059
▁custody	-10.1062
ma	-10.1074
▁reservation	-10.1075
▁57	-10.1088
▁fall	-10.1093
▁kaich	-10.1101
▁middle	-10.1105
▁kaarykaal	-10.1108
▁salaah	-10.1124
▁dinesh	-10.1126
▁legal	-10.1128
▁bikri	-10.113
▁padataa	-10.1131
▁shows	-10.1135
▁stated	-10.1136
▁mahasachiv	-10.1149
unhone	-10.1158
▁kangana	-10.1161
▁khele	-10.1161
▁appeared	-10.1162
▁organizations	-10.1162
▁cancer	-10.1163
▁title	-10.1164
modi	-10.1171
▁gane	-10.1175
▁nuclear	-10.1179
▁banking	-10.118
▁swaagat	-10.1183
ul	-10.1184
▁behtareen	-10.1201
▁keeping	-10.1207
▁effect	-10.121
▁suchakank	-10.1212
▁unako	-10.1215
vi	-10.1222
▁gathan	-10.1223
▁opening	-10.1233
▁hero	-10.1254
▁purush	-10.1254
▁color	-10.1261
▁javaanon	-10.1261
as	-10.1268
▁prakash	-10.1272
▁bowling	-10.1279
▁kamjor	-10.1279
▁aaenge	-10.128
▁responsible	-10.1292
▁sanket	-10.1301
ram	-10.1306
▁balaatkaar	-10.1309
▁smriti	-10.1313
▁avasar	-10.1315
▁remains	-10.1318
▁illegal	-10.132
▁khushi	-10.1323
▁jiesti	-10.1326
▁jati	-10.1331
bi	-10.1335
▁needed	-10.1337
▁branch	-10.1339
▁8,	-10.1345
▁batsmen	-10.1348
▁siddharth	-10.135
▁fifth	-10.1356
▁crisis	-10.1357
▁katrina	-10.1376
▁saansadon	-10.1377
▁agencies	-10.1381
▁dhamkee	-10.1384
▁little	-10.1388
▁london	-10.1389
▁goyal	-10.1392
▁johar	-10.1395
▁itane	-10.1407
▁felt	-10.1414
▁houses	-10.1427
▁facing	-10.143
▁padak	-10.1432
▁nifty	-10.144
▁ceremony	-10.145
▁allegedly	-10.1456
▁aarakshan	-10.1458
▁2007	-10.1459
▁sex	-10.1463
▁tamilnadu	-10.1463
▁truth	-10.1464
▁pushti	-10.1465
▁standing	-10.1466
▁rajesh	-10.1468
▁72	-10.1468
▁majority	-10.1469
▁bowler	-10.1473
▁aar	-10.1474
▁create	-10.1479
▁bole	-10.1482
▁opportunity	-10.1485
▁themselves	-10.1491
▁bisisiai	-10.1498
▁abhinayta	-10.15
▁attempt	-10.1508
▁documents	-10.1513
▁domestic	-10.1515
▁chauthe	-10.1523
▁khate	-10.1528
▁badhkar	-10.1532
▁sc	-10.1538
▁shuruaati	-10.154
▁journey	-10.1541
▁image	-10.1544
▁irani	-10.1553
▁code	-10.1566
▁maan	-10.1576
▁chhot	-10.1577
▁opinion	-10.158
up	-10.1581
▁missile	-10.1595
▁pade	-10.1595
▁aasapaas	-10.1599
bar	-10.1603
▁nifti	-10.161
▁kg	-10.1617
▁consecutive	-10.1626
▁policemen	-10.1628
▁kol	-10.1629
▁assistant	-10.1631
▁germany	-10.1632
▁avaidh	-10.1633
▁elected	-10.1636
▁bilkul	-10.1637
▁basapa	-10.1642
▁bos	-10.1643
▁balon	-10.1649
▁aatankwaadiyon	-10.1654
▁nadi	-10.1655
▁paid	-10.166
▁easy	-10.1662
men	-10.1662
▁safai	-10.1662
▁average	-10.1664
▁saajha	-10.1664
z	-10.1668
▁latest	-10.1668
▁connection	-10.1669
▁parts	-10.167
▁rejected	-10.1672
▁yesterday	-10.1676
▁remove	-10.1682
▁spoke	-10.1682
▁break	-10.1683
▁magistrate	-10.169
▁broke	-10.1697
▁bachaane	-10.1703
▁attention	-10.1714
▁link	-10.1714
▁beat	-10.1719
▁maangi	-10.172
▁sushamaa	-10.1726
▁credit	-10.1728
▁haraaya	-10.1736
▁gets	-10.1737
▁goods	-10.1739
▁debate	-10.1743
▁karmchaaree	-10.1748
▁thinking	-10.1751
▁3,	-10.1752
▁rojgaar	-10.1753
▁prem	-10.1756
▁inspector	-10.1765
▁born	-10.1769
▁rus	-10.1773
▁honor	-10.1774
▁inquiry	-10.1781
▁carried	-10.1788
▁mul	-10.1789
▁ashanka	-10.1789
▁missing	-10.1791
▁ullekhneey	-10.1791
▁application	-10.1792
▁jisane	-10.181
▁impact	-10.1814
▁jdu	-10.1824
▁spent	-10.1828
▁dollars	-10.1833
▁club	-10.1833
▁details	-10.1837
▁energy	-10.1844
▁vaishvik	-10.1847
▁6,	-10.1847
▁asaram	-10.1853
▁definitely	-10.1858
▁ka	-10.1871
▁kanpur	-10.1872
▁jobs	-10.1878
▁saajhedaari	-10.1878
▁59	-10.1878
▁daam	-10.1879
▁paswan	-10.1879
▁khabaren	-10.188
▁atal	-10.1885
▁neither	-10.1886
▁rajiv	-10.1889
▁ahamed	-10.1891
▁aawaaj	-10.1894
▁jeeta	-10.1901
▁peeth	-10.1905
▁sold	-10.1919
▁focus	-10.1921
▁democracy	-10.1922
▁abdul	-10.1925
▁kitaab	-10.1926
▁shapath	-10.1928
▁parmaanu	-10.1929
▁taliban	-10.1932
▁claims	-10.1938
▁advani	-10.1939
▁chalata	-10.194
▁speak	-10.1941
▁audience	-10.1944
▁trek	-10.1944
▁base	-10.195
▁vaahan	-10.1955
▁thana	-10.1957
▁hour	-10.1958
there	-10.1968
▁clean	-10.1969
▁supported	-10.1972
▁bhagwaan	-10.1973
▁roy	-10.1976
▁oparation	-10.198
iya	-10.1981
▁lenge	-10.1985
▁vaardaat	-10.1987
▁ambani	-10.1989
▁changes	-10.1993
▁confidence	-10.1993
▁approved	-10.2
▁gaadi	-10.2003
▁khatra	-10.2003
▁lack	-10.2011
▁manager	-10.2013
▁rao	-10.2014
▁baadh	-10.2015
▁chayan	-10.2018
▁path	-10.2024
▁syria	-10.2025
▁bol	-10.2026
▁addition	-10.204
▁jimmedaar	-10.2041
▁avadhi	-10.2059
▁ladakiyon	-10.2063
▁banned	-10.2077
▁landan	-10.2081
▁entered	-10.2089
▁using	-10.209
▁khaane	-10.209
▁app	-10.2094
▁possibility	-10.2099
▁95	-10.2115
▁sharir	-10.2115
▁sunishchit	-10.2116
un	-10.2121
▁achaanak	-10.2123
▁ever	-10.2126
▁dekhen	-10.2135
▁until	-10.2136
ah	-10.2136
▁icc	-10.2138
▁raste	-10.2138
▁maah	-10.2144
▁05	-10.2148
▁daal	-10.2152
▁padhai	-10.2156
▁ranneeti	-10.2159
▁bhushan	-10.2161
▁shaharon	-10.2166
▁consider	-10.2167
▁pradhan	-10.2167
▁anubhav	-10.2172
▁g	-10.2176
▁almost	-10.2178
▁resident	-10.2179
▁lig	-10.2181
▁j	-10.2185
▁karthik	-10.2192
▁1000	-10.2196
law	-10.2196
▁fear	-10.2199
▁ghati	-10.2202
▁true	-10.2206
▁please	-10.2207
▁aankadon	-10.2207
▁chand	-10.2221
▁trading	-10.2223
▁partiyon	-10.2224
▁separate	-10.2229
▁words	-10.223
▁laut	-10.2235
▁often	-10.2244
▁lashkar	-10.2252
▁religion	-10.2254
▁demanding	-10.2256
▁chalane	-10.2257
▁agarwal	-10.2258
▁vittiya	-10.2258
▁goal	-10.226
dilli	-10.2264
▁aapane	-10.2266
▁khaali	-10.2268
▁prabhaav	-10.2283
▁agali	-10.2283
▁samiksha	-10.2284
▁tasviren	-10.2288
▁niyam	-10.2289
▁presented	-10.2292
▁rasta	-10.2293
▁akhbaar	-10.2298
▁sajeesh	-10.2304
▁bowlers	-10.2306
▁sambandhi	-10.2311
▁nikal	-10.2315
▁strategy	-10.232
▁caste	-10.2321
▁nath	-10.2327
▁reality	-10.2328
▁chhodkar	-10.2332
▁saboot	-10.2335
▁statements	-10.234
▁bukamp	-10.2341
▁prove	-10.2356
▁batch	-10.2362
▁thackeray	-10.2366
▁9.	-10.2369
▁hathiyaar	-10.237
▁toss	-10.2372
▁naaraaz	-10.2374
▁resignation	-10.2374
▁adarsh	-10.2382
▁mulya	-10.239
▁badhane	-10.2392
▁en	-10.2392
▁concerned	-10.2393
▁uthaae	-10.2399
▁7,	-10.2399
▁confirmed	-10.24
▁sainya	-10.241
▁udyog	-10.2414
▁trial	-10.2418
▁jilon	-10.2422
▁yogadan	-10.2423
▁license	-10.2423
▁constituency	-10.2428
▁reply	-10.243
▁pratyaashee	-10.2433
▁patil	-10.2436
▁ahmed	-10.2437
▁2004	-10.2444
▁bhugtan	-10.2447
▁awaas	-10.2452
▁buy	-10.2453
▁v	-10.2453
▁67	-10.2463
▁league	-10.2465
▁maafee	-10.2466
▁computer	-10.2472
▁above	-10.2475
ab	-10.2477
▁kahati	-10.248
▁active	-10.248
▁newjiland	-10.2484
▁loan	-10.2485
▁padon	-10.2485
▁trend	-10.2489
▁lakhs	-10.2489
▁dravid	-10.2491
▁pawar	-10.2493
▁diwali	-10.2493
▁savaar	-10.2497
▁sanshodhan	-10.2497
▁reduce	-10.2498
▁sister	-10.2515
▁rahegi	-10.2527
▁sahmati	-10.253
▁62	-10.2536
▁criminal	-10.2547
▁industries	-10.255
▁experience	-10.2556
-2	-10.2557
▁pal	-10.2557
▁nyaayadhish	-10.2558
bijepi	-10.256
▁parinaam	-10.2563
▁islamic	-10.2564
▁adwani	-10.2568
▁masjid	-10.2572
▁pratibandh	-10.2584
▁pichhali	-10.2587
▁bag	-10.2587
▁having	-10.259
▁residence	-10.2592
▁badhai	-10.2604
▁yuddh	-10.2604
▁respect	-10.2606
▁protection	-10.2607
▁garib	-10.2612
▁upaadhyaksh	-10.2621
▁kanoonee	-10.2627
▁hockey	-10.2634
▁kab	-10.2634
▁preparing	-10.264
▁believes	-10.264
▁tanaav	-10.2641
▁zyaada	-10.2641
▁canceled	-10.2646
▁kharid	-10.2655
▁pre	-10.2661
run	-10.2662
▁attend	-10.2669
▁faraar	-10.267
▁losing	-10.267
▁rakhana	-10.2679
▁370	-10.2679
▁khadi	-10.2679
▁sach	-10.268
▁shashan	-10.2682
▁66	-10.2686
▁saudi	-10.2686
▁rakesh	-10.2688
▁tarif	-10.2688
jan	-10.2695
▁aabaadi	-10.2698
▁diarector	-10.2704
▁mashhoor	-10.2706
▁diesel	-10.2713
▁bhawan	-10.2718
▁bombay	-10.2718
▁om	-10.2723
▁collection	-10.2723
▁employment	-10.2724
▁suvidha	-10.2726
▁chot	-10.2728
▁telecom	-10.2737
▁activities	-10.2739
▁trains	-10.2746
▁chaahe	-10.2761
▁kitna	-10.2763
▁niyukti	-10.2765
▁earthquake	-10.2769
▁tomorrow	-10.2776
▁waiting	-10.278
▁mahesh	-10.2784
▁darshakon	-10.2788
▁concern	-10.28
▁yatriyon	-10.2805
▁religious	-10.2808
▁reasons	-10.2812
▁parijanon	-10.2821
▁appointed	-10.2821
▁00	-10.2826
▁4,	-10.2832
▁mukesh	-10.2832
▁ladane	-10.2833
▁gir	-10.2836
▁padegaa	-10.2838
▁investigate	-10.2841
▁hawaale	-10.2842
us	-10.2855
▁utpaadan	-10.2864
▁gramin	-10.2865
▁shakti	-10.2866
▁offer	-10.2867
▁dikhaa	-10.2867
▁works	-10.2871
▁yuvaaon	-10.2875
▁antar	-10.2878
▁santhaan	-10.2885
▁krishi	-10.2885
▁normal	-10.289
▁vaada	-10.2891
▁mahatma	-10.2893
▁terror	-10.2893
▁aadi	-10.2905
▁visphot	-10.2907
▁dashak	-10.2911
▁vinod	-10.2913
▁suffered	-10.2914
▁salary	-10.2917
▁kaamyaab	-10.2922
▁weapons	-10.2924
▁freedom	-10.2929
▁thakare	-10.2937
samvaadadaataaon	-10.2939
▁raheen	-10.294
▁ncp	-10.2941
(@	-10.2946
▁adhyayan	-10.2949
▁chif	-10.2955
▁bihari	-10.2956
▁lord	-10.2961
▁practice	-10.2965
▁bahumat	-10.2966
▁coal	-10.2967
▁dream	-10.2967
▁rekha	-10.2969
▁experts	-10.298
▁lalit	-10.2983
▁chetavanee	-10.2986
▁ranking	-10.2988
▁cause	-10.3001
▁sometimes	-10.3007
▁pass	-10.3011
jab	-10.3014
▁proved	-10.3017
▁filmein	-10.3026
▁vikalp	-10.3029
▁movie	-10.3032
▁samachar	-10.3035
▁beginning	-10.3042
▁raav	-10.3044
▁rss	-10.3044
▁aakar	-10.3053
▁executive	-10.3053
▁manaa	-10.3054
▁khanna	-10.3056
▁leaving	-10.3057
▁clearly	-10.3058
▁jhatka	-10.3061
▁uddhav	-10.3067
▁fun	-10.3077
▁music	-10.3081
▁russia	-10.309
▁cover	-10.3092
ak	-10.3093
▁atmosphere	-10.3104
▁nattejey	-10.3105
▁jaldi	-10.3109
▁investigated	-10.311
▁improve	-10.3112
▁aware	-10.3114
▁green	-10.312
▁markets	-10.3126
▁pavaar	-10.3127
▁task	-10.3128
▁maanate	-10.3132
▁weeks	-10.3135
▁explain	-10.3141
▁display	-10.3142
▁blood	-10.3142
▁praised	-10.3142
▁appealed	-10.3144
▁royal	-10.3147
▁devendra	-10.3147
har	-10.3157
▁ruling	-10.3164
▁citizens	-10.3165
▁varshon	-10.3173
▁valley	-10.3176
▁king	-10.3176
▁68	-10.3178
▁rakhe	-10.3182
▁morcha	-10.3188
▁63	-10.3188
▁celsius	-10.3189
▁niyamon	-10.319
▁uthaane	-10.3191
▁environment	-10.3194
▁accepted	-10.3199
▁watching	-10.3203
▁traffic	-10.3203
▁female	-10.3209
▁loktantr	-10.3211
▁prayog	-10.3212
▁compared	-10.3217
▁aditya	-10.3222
▁appear	-10.3225
▁calling	-10.3231
▁chalaane	-10.3233
▁abroad	-10.3246
▁saken	-10.3247
▁bhoomi	-10.325
and	-10.3254
▁denied	-10.3259
▁internal	-10.3261
▁nidhan	-10.3262
iyon	-10.3263
▁positive	-10.3264
▁limit	-10.3267
▁endie	-10.3271
▁space	-10.3274
▁thank	-10.3275
▁travel	-10.3277
▁hataane	-10.3297
▁safe	-10.3297
▁etc	-10.3299
input	-10.3305
▁rajan	-10.3308
gi	-10.3313
▁f	-10.3314
▁plane	-10.3317
▁conduct	-10.3322
▁commander	-10.3324
▁skulon	-10.3328
▁follow	-10.3336
▁mso	-10.3352
▁idea	-10.3355
▁sarvaadhik	-10.3357
▁76	-10.3369
▁teesri	-10.3375
▁agreed	-10.3377
▁lodged	-10.3422
▁example	-10.3427
▁jam	-10.3435
▁birth	-10.3437
▁sambhav	-10.3437
▁writing	-10.3437
▁kamal	-10.3438
▁aankade	-10.3451
▁sadakon	-10.346
▁sakaa	-10.3469
▁ambedkar	-10.3475
▁safety	-10.3478
▁vetan	-10.3485
▁jabardast	-10.3486
▁hawa	-10.3495
▁takes	-10.3498
▁tennis	-10.3499
▁ensure	-10.35
▁kehane	-10.3502
▁aapkaa	-10.3505
▁spinner	-10.3505
▁smart	-10.3509
▁vistaar	-10.3511
▁sixes	-10.3518
▁android	-10.3519
▁introduced	-10.3522
▁chandigarh	-10.3525
▁figures	-10.3526
▁ghat	-10.3527
▁else	-10.3529
▁villages	-10.3542
▁faansee	-10.3543
▁)(	-10.3545
▁cast	-10.3547
▁sainikon	-10.3549
▁hal	-10.3552
▁constantly	-10.3559
▁rigelt	-10.356
▁71	-10.3563
▁amethi	-10.3568
▁hamalon	-10.3569
▁allow	-10.3571
▁rahanaa	-10.358
▁amar	-10.3581
▁nation	-10.3582
▁aay	-10.3583
▁rural	-10.3587
▁silver	-10.3592
▁bahan	-10.3609
▁identified	-10.361
▁accounts	-10.3613
▁jaj	-10.3613
▁rose	-10.3624
▁takat	-10.3627
▁ausat	-10.3628
▁transport	-10.363
▁hear	-10.3631
▁parrikar	-10.3631
▁ed	-10.3637
▁footage	-10.3642
▁midcap	-10.3644
▁direction	-10.3645
▁quality	-10.3658
▁tu	-10.3664
▁laayaa	-10.3664
▁continues	-10.3664
▁direct	-10.3665
▁jagahon	-10.3666
▁projects	-10.3674
▁announcement	-10.3675
▁rains	-10.3679
may	-10.3688
▁fine	-10.369
▁choti	-10.3692
▁74	-10.3695
▁dharna	-10.37
▁crowd	-10.3709
▁net	-10.371
▁pakad	-10.3712
ha	-10.3712
▁harbhajan	-10.3724
▁400	-10.3731
▁vartmaan	-10.3731
▁talked	-10.3746
ba	-10.3753
▁accept	-10.3756
mujhe	-10.3757
▁vyakt	-10.3758
▁semi	-10.3763
▁vyapaar	-10.3764
▁jha	-10.3764
raj	-10.3766
▁factory	-10.3767
▁gram	-10.377
▁nyaay	-10.3773
▁du	-10.3791
▁jadhav	-10.3805
▁bomb	-10.3808
▁smallcap	-10.3813
▁proposed	-10.3813
▁handed	-10.3814
▁katautee	-10.3817
▁haq	-10.3825
▁kaarobaari	-10.3826
▁bhav	-10.3829
▁makes	-10.383
▁goes	-10.3838
▁democratic	-10.3842
▁trinamool	-10.3845
▁fighting	-10.3848
▁xi	-10.3849
▁inaki	-10.3852
▁hisse	-10.3859
▁roshan	-10.3859
▁ajtak	-10.3861
▁plant	-10.3864
▁jinke	-10.387
▁11,	-10.3872
▁73	-10.3873
▁yes	-10.3876
nd	-10.3877
▁occurred	-10.3877
▁whatever	-10.3889
▁vehicle	-10.3894
▁ashram	-10.3902
▁lagaate	-10.3905
▁chouhan	-10.3906
▁sushil	-10.3908
▁managed	-10.3912
▁sthapit	-10.3912
▁decisions	-10.3914
▁whom	-10.3918
▁maximum	-10.3919
▁westeindies	-10.392
▁caused	-10.3924
▁manner	-10.3926
▁exange	-10.3927
▁scene	-10.3934
▁conspiracy	-10.394
▁khelaa	-10.3942
▁minor	-10.3943
▁61	-10.3957
▁ashwin	-10.3958
▁legislative	-10.3977
el	-10.398
▁99	-10.3981
▁hasan	-10.3984
▁mahilaayein	-10.3986
▁chunaa	-10.3987
▁deployed	-10.399
▁sarvshereshth	-10.3998
▁nagarikon	-10.4006
▁khulaa	-10.401
▁raise	-10.401
▁mufti	-10.4011
▁indore	-10.4011
▁addressing	-10.4013
▁mahangaai	-10.4015
▁patrkaar	-10.4015
▁though	-10.4016
▁bodies	-10.4017
▁sanghathanon	-10.4021
▁scoring	-10.4023
▁ended	-10.4026
ata	-10.4028
▁champions	-10.4033
▁steel	-10.4041
▁chori	-10.4042
▁vaarta	-10.4044
▁thousands	-10.4046
▁mandal	-10.4053
my	-10.4057
▁hadtaal	-10.4063
▁(2.	-10.4064
▁prabandhan	-10.4065
▁tod	-10.4066
▁thought	-10.4067
▁78	-10.4068
▁deep	-10.4069
▁11.	-10.4073
▁products	-10.4074
▁warner	-10.4075
▁higher	-10.4075
▁appeal	-10.4079
▁independence	-10.4079
par	-10.4079
▁fail	-10.408
▁milti	-10.4086
▁lard	-10.4088
▁airtel	-10.4091
▁trinmul	-10.41
▁nikaal	-10.4105
▁selected	-10.411
▁chakke	-10.4115
▁happening	-10.4118
▁dubai	-10.4121
▁railways	-10.4121
▁sau	-10.4123
hi	-10.4123
▁sat	-10.4125
▁forest	-10.4125
▁verdict	-10.4125
▁safar	-10.4132
▁samaadhaan	-10.4132
▁69	-10.4144
▁shivpal	-10.4145
▁maddenjar	-10.4146
▁shetty	-10.4147
▁beautiful	-10.4149
▁maheenon	-10.4151
▁sambandhon	-10.4152
▁slogans	-10.4154
▁presence	-10.4155
▁leading	-10.4157
ja	-10.416
▁golibari	-10.4162
▁muhaiyaa	-10.4162
▁implemented	-10.4162
▁rani	-10.4168
▁institutions	-10.418
▁gain	-10.4182
▁khitaab	-10.4186
▁lower	-10.419
▁ranchi	-10.4192
▁jang	-10.4192
▁plans	-10.4193
▁sawaalon	-10.4193
▁daalaa	-10.4197
▁shoot	-10.4199
▁tickets	-10.4201
▁pareshaani	-10.4202
ers	-10.4205
▁strongly	-10.4216
▁doctoron	-10.4222
▁continuously	-10.4225
▁attitude	-10.4226
▁fixed	-10.4227
▁notification	-10.4229
▁mi	-10.4232
▁postmortem	-10.4235
▁sensitive	-10.4236
▁agra	-10.4238
▁kaarywahi	-10.4245
▁principal	-10.4248
▁showing	-10.4249
▁aagaamee	-10.4254
▁busy	-10.4258
▁2002	-10.4261
▁hataa	-10.4263
▁84	-10.4267
▁pollution	-10.427
▁sunai	-10.427
▁galati	-10.427
▁arrangements	-10.4275
▁taapmaana	-10.4276
▁turned	-10.4277
▁padhein	-10.4292
▁rajendra	-10.4295
▁independent	-10.4301
▁gadkari	-10.4301
▁race	-10.4306
▁municipal	-10.4307
led	-10.431
▁28,	-10.4316
▁participate	-10.4316
▁degi	-10.4317
▁spokesman	-10.4317
▁upyog	-10.4324
▁double	-10.4342
▁bengaluru	-10.4358
▁upie	-10.4359
▁campus	-10.4363
▁18,	-10.4364
▁singapore	-10.4371
▁shastri	-10.4373
▁mission	-10.4381
▁competition	-10.4381
▁pradaan	-10.4385
▁ravaanaa	-10.4385
▁aksar	-10.4391
▁urja	-10.4397
▁bedi	-10.4401
▁dekhi	-10.4401
▁telangana	-10.441
▁chauhan	-10.4417
▁selection	-10.4418
▁asking	-10.4422
▁strict	-10.4425
▁sone	-10.4428
ur	-10.4429
▁gives	-10.443
▁alone	-10.4432
▁badalane	-10.4434
▁suspended	-10.4435
▁19,	-10.4438
▁culture	-10.4439
▁san	-10.444
▁akhtar	-10.444
▁italy	-10.4444
tu	-10.4446
▁broken	-10.4448
▁investors	-10.4451
▁guard	-10.4453
ana	-10.4453
▁gorakhpur	-10.4454
▁companiyaan	-10.4455
aaj	-10.4456
▁rescue	-10.4456
▁badhati	-10.4461
▁ranveer	-10.4465
▁timahi	-10.4468
▁khufia	-10.447
▁permission	-10.4478
▁andaaj	-10.4479
▁susheel	-10.4494
▁pawan	-10.4495
▁singer	-10.4495
▁puraani	-10.4504
▁imposed	-10.4509
▁moving	-10.4511
▁returning	-10.4516
▁remaining	-10.4517
▁bse	-10.4518
▁fan	-10.4527
▁wearing	-10.4534
▁operations	-10.4535
▁threat	-10.454
▁emergency	-10.4544
▁bhatta	-10.4551
▁hongi	-10.4556
▁victims	-10.4565
▁rana	-10.4565
▁scale	-10.4569
▁10.	-10.457
▁nazar	-10.4578
▁lahore	-10.458
▁mukt	-10.4581
▁dharmik	-10.4581
▁olympics	-10.4586
va	-10.4589
▁debt	-10.4595
▁users	-10.4599
▁opposed	-10.46
▁ijaajat	-10.4607
▁authority	-10.4627
▁agenciyon	-10.4628
▁samjhaute	-10.4636
▁jaani	-10.4637
▁sonam	-10.4637
▁maarg	-10.4646
▁photos	-10.4646
▁lambii	-10.4647
▁duuri	-10.4656
▁mehnat	-10.4656
▁sar	-10.4658
▁ranjan	-10.4658
▁really	-10.4659
▁86	-10.4664
▁haa	-10.4679
▁register	-10.4683
▁hawala	-10.4685
▁noteworthy	-10.4689
▁yon	-10.4689
▁build	-10.4694
▁parivartan	-10.4694
▁sentenced	-10.4697
▁forced	-10.4697
▁badhotaree	-10.4699
▁ghatnaon	-10.4703
10	-10.4708
▁governments	-10.4708
▁praavdhaan	-10.4715
▁rahim	-10.473
▁serial	-10.4733
▁makasad	-10.4735
▁rishte	-10.4737
▁muthbhed	-10.4738
▁began	-10.474
▁buree	-10.4744
▁maanav	-10.4745
ia	-10.4748
▁bulaayaa	-10.4749
▁jite	-10.4751
▁maaraa	-10.4757
▁camere	-10.4763
▁khelon	-10.4765
▁miss	-10.4771
▁farji	-10.4771
▁advantage	-10.4775
▁acount	-10.4775
waan	-10.4781
▁x	-10.4787
▁kim	-10.4789
▁ians	-10.4789
▁patrakaron	-10.4795
▁gadakari	-10.4795
▁sharing	-10.4799
▁aswin	-10.4806
▁purvi	-10.4818
▁panel	-10.4821
▁headquarters	-10.4835
▁tatkaal	-10.4836
▁academy	-10.4839
▁degaa	-10.4841
▁videos	-10.4842
▁stone	-10.4844
▁range	-10.4844
time	-10.4844
▁master	-10.4845
▁mamta	-10.4847
▁actors	-10.4852
▁decline	-10.4853
▁superstar	-10.4856
▁27,	-10.4859
▁engaged	-10.4866
▁finally	-10.4866
▁26,	-10.4871
▁jaaya	-10.4874
▁keemton	-10.4875
▁surat	-10.4876
▁discuss	-10.488
▁dijal	-10.4884
▁planning	-10.4884
▁jute	-10.4888
▁anurodh	-10.4898
https	-10.4901
▁jaish	-10.4901
▁kareebi	-10.4902
ro	-10.4902
▁trailer	-10.4906
▁suddenly	-10.4913
▁sad	-10.4916
▁atm	-10.4919
▁byaaj	-10.4921
based	-10.4925
▁followed	-10.4927
▁similarly	-10.4927
▁enter	-10.4928
▁nigaraanee	-10.4935
▁paalan	-10.4935
▁kitne	-10.4939
▁baton	-10.494
▁saamaan	-10.4942
▁samaksh	-10.4945
▁sai	-10.4946
▁liquor	-10.4949
▁kitni	-10.4952
▁interesting	-10.4952
▁schemes	-10.4953
▁insurance	-10.4955
▁17,	-10.4958
▁junior	-10.4959
▁83	-10.4969
▁niyukt	-10.4971
▁pranali	-10.4975
▁77	-10.4977
▁kalam	-10.4982
▁cctv	-10.4984
▁maalik	-10.4984
▁samjhauta	-10.4989
▁leg	-10.499
▁kendra	-10.4991
▁militants	-10.4993
▁kamare	-10.4994
▁yatri	-10.4995
▁saathi	-10.4996
▁couple	-10.4998
▁airlines	-10.4999
▁flight	-10.5
▁vs	-10.5001
▁external	-10.5001
em	-10.5003
▁guest	-10.5005
▁faced	-10.5008
▁admission	-10.501
▁saki	-10.5018
▁khaanaa	-10.5019
▁2006	-10.5019
baar	-10.5021
▁visited	-10.5023
▁suzav	-10.5024
▁bachaa	-10.5026
▁nikaala	-10.5028
▁subhash	-10.5029
▁islam	-10.503
▁sania	-10.5033
▁difference	-10.5035
▁samarthakon	-10.504
▁bataai	-10.5045
▁16,	-10.5046
▁rates	-10.5048
▁mar	-10.5052
▁talaak	-10.5055
▁bisai	-10.5057
▁becomes	-10.5058
▁sanstha	-10.5058
▁nations	-10.5059
▁passport	-10.5066
▁ikai	-10.5069
ga	-10.5072
▁trouble	-10.5073
▁handle	-10.5076
▁facilities	-10.5077
▁abhinetri	-10.5077
▁superintendent	-10.508
▁kaayam	-10.5081
▁pain	-10.5082
▁mishan	-10.5083
▁sehwag	-10.5088
▁siyaasi	-10.5092
▁masale	-10.5093
".	-10.5094
▁ection	-10.5095
▁pareekshan	-10.5096
▁temperature	-10.5099
▁pak	-10.5103
▁akali	-10.5105
▁mentioned	-10.5106
▁saadhe	-10.511
▁shabd	-10.5121
▁sides	-10.5123
▁activists	-10.5126
▁platform	-10.5127
▁bajaay	-10.5127
▁canada	-10.5129
▁western	-10.5131
▁takkar	-10.5132
▁appointment	-10.5132
▁located	-10.5133
▁graahakon	-10.5135
▁rishi	-10.5139
▁nahi	-10.5141
▁nia	-10.5144
▁aana	-10.5144
▁sale	-10.5151
▁bazaaron	-10.5152
▁isisi	-10.5156
▁rakam	-10.5158
▁chhavi	-10.5159
▁thodaa	-10.5164
▁battle	-10.5164
sh	-10.5171
▁avoid	-10.5172
▁sandigdh	-10.5173
▁journalist	-10.5175
-1	-10.5175
▁samaan	-10.5178
▁ranvir	-10.5179
▁bar	-10.5179
▁polling	-10.5185
▁naabad	-10.519
▁chune	-10.5191
ate	-10.5196
▁cross	-10.5203
▁arjuna	-10.5204
▁james	-10.5206
▁enough	-10.5207
▁paarit	-10.5219
▁sarvice	-10.522
▁pradooshan	-10.5221
▁lagaakar	-10.5226
▁dialogue	-10.5227
▁longer	-10.5229
▁manu	-10.523
▁02	-10.5233
▁chehre	-10.5234
▁weak	-10.5235
▁aishwarya	-10.5235
▁bigg	-10.5235
▁comment	-10.5244
▁sakht	-10.5247
ch	-10.5248
▁preparations	-10.5251
▁farmer	-10.5268
▁taaja	-10.5268
▁radio	-10.5273
▁effort	-10.5273
▁semifinal	-10.5275
▁iraq	-10.5275
▁protect	-10.5278
▁mantrimandal	-10.528
▁songs	-10.528
▁uchit	-10.5282
▁pariyojna	-10.5283
▁barkaraar	-10.5287
▁fully	-10.5293
▁gira	-10.5299
▁placed	-10.53
▁yuvraj	-10.5306
▁includes	-10.531
▁sahaayta	-10.5313
aa	-10.5314
▁daftar	-10.5319
▁floor	-10.5322
▁ladke	-10.5323
▁aatmahatya	-10.5325
▁aazaadee	-10.5332
▁daayre	-10.5334
▁jataayaa	-10.5337
▁chhodane	-10.5338
▁iphone	-10.5339
▁parisar	-10.5343
▁badla	-10.5344
▁nishchit	-10.5353
▁naxalites	-10.5359
▁surprised	-10.5365
▁litre	-10.5368
▁gained	-10.5374
▁praudyogiki	-10.5376
▁below	-10.5377
▁minimum	-10.538
▁aitihaasik	-10.5381
▁badale	-10.5389
▁judaa	-10.5396
▁cooperation	-10.5397
▁82	-10.5404
finals	-10.5413
▁contact	-10.5416
▁kheli	-10.5433
▁sindhu	-10.5442
▁tiimon	-10.5444
co	-10.5451
▁04	-10.5452
▁pahal	-10.5453
you	-10.5454
▁starting	-10.5455
▁thodi	-10.5471
▁eye	-10.5471
▁9,	-10.5473
▁naakaam	-10.5475
▁hangaamaa	-10.5488
▁attended	-10.549
▁vivek	-10.55
▁bahujan	-10.5504
▁kilo	-10.5504
war	-10.5505
▁certificate	-10.5506
▁threatened	-10.5509
▁hollywood	-10.5522
▁gaur	-10.5522
▁mistake	-10.5526
▁telugana	-10.553
▁registration	-10.5536
fi	-10.5545
▁seeking	-10.5546
▁overon	-10.5547
▁aayega	-10.5547
▁nirdhaarit	-10.555
▁je	-10.5552
▁2005	-10.5553
agar	-10.5555
▁retail	-10.5556
▁miscreants	-10.556
▁term	-10.5572
▁murali	-10.5578
be	-10.5582
▁nyaayamurti	-10.5587
▁ravindra	-10.5588
▁sakriy	-10.5592
▁islamabad	-10.5592
▁nipatane	-10.56
▁uproar	-10.5602
▁conditions	-10.5614
▁hair	-10.5617
jo	-10.5619
▁sahab	-10.562
▁clothes	-10.5624
▁whatsapp	-10.5628
▁cheez	-10.5645
▁sixth	-10.5646
▁teesraa	-10.565
▁boys	-10.5663
▁kashyap	-10.5665
▁yojanaon	-10.5666
▁10,	-10.5667
▁voton	-10.5673
▁sapana	-10.5674
▁produced	-10.5683
maine	-10.5687
▁lihaaja	-10.5687
▁meerut	-10.5689
▁assets	-10.569
▁proud	-10.5695
▁deree	-10.5695
▁santosh	-10.5696
▁stations	-10.5697
▁mail	-10.5698
▁hazare	-10.5702
▁upper	-10.5708
▁ekta	-10.5711
▁yuvaraj	-10.5712
▁rio	-10.5714
▁mehta	-10.5715
▁arunachal	-10.5715
▁performed	-10.572
▁debut	-10.5728
▁welfare	-10.5734
▁shrenee	-10.5736
rs	-10.5739
▁judicial	-10.5743
▁15,	-10.5744
nagar	-10.5746
▁14,	-10.5746
of	-10.5749
▁roads	-10.575
▁kashmiri	-10.5759
▁diggaj	-10.5766
▁nagpur	-10.5766
▁makaan	-10.5767
▁authorities	-10.5769
▁12,	-10.5769
▁spectrum	-10.5771
▁maanga	-10.5771
▁scindia	-10.5771
▁reaching	-10.5778
pal	-10.5778
▁13,	-10.5778
▁judges	-10.5778
▁identity	-10.5783
▁beemaari	-10.5794
▁seriously	-10.5801
▁fair	-10.5802
▁87	-10.5805
▁kabja	-10.5811
▁mandi	-10.5826
▁bhatt	-10.5828
pita	-10.5829
▁97	-10.583
▁08	-10.5839
▁wait	-10.5844
▁vajpayee	-10.5851
▁aasaani	-10.5857
▁redmi	-10.5858
▁funds	-10.5858
▁deceased	-10.5859
▁badhaava	-10.5866
▁arjun	-10.5869
▁sheet	-10.5871
▁ballebaajon	-10.588
▁sijan	-10.5881
▁summit	-10.5884
▁mukadmaa	-10.5885
▁industrial	-10.5886
▁akbar	-10.5889
▁raising	-10.5891
▁grahamantri	-10.5893
dar	-10.5895
▁kill	-10.5898
▁amid	-10.5899
▁offered	-10.5908
▁chowk	-10.5909
▁vasundhara	-10.5911
▁raman	-10.5913
▁blue	-10.5922
▁rajput	-10.5923
▁nikaalane	-10.5928
▁bowled	-10.5929
▁abu	-10.5931
▁request	-10.5932
▁foot	-10.5936
pi	-10.5936
▁dress	-10.594
▁pan	-10.5949
▁praveen	-10.5952
▁milte	-10.5955
▁gatividhiyon	-10.5956
▁dikshit	-10.5959
▁dastavej	-10.5959
▁gaurav	-10.5963
▁25,	-10.5964
▁turn	-10.5967
▁raftaar	-10.5972
▁option	-10.5974
pa	-10.5974
▁shop	-10.598
▁bold	-10.598
▁learn	-10.5982
▁eat	-10.5983
▁21,	-10.5987
▁ashish	-10.5987
▁revenue	-10.5988
▁injury	-10.5992
▁aagrah	-10.5998
▁hisson	-10.6005
▁hajaaron	-10.6009
▁89	-10.6015
▁nunatam	-10.6015
mi	-10.6017
▁questioning	-10.6018
▁chaaron	-10.602
▁akele	-10.6022
▁chat	-10.6024
▁clic	-10.6026
▁cook	-10.6033
▁remember	-10.6037
▁20,	-10.6053
▁requested	-10.6059
▁angreji	-10.6061
▁raju	-10.6063
rd	-10.6068
▁privet	-10.607
▁tatkaaleen	-10.6071
▁jitkar	-10.6072
▁92	-10.6079
▁lihaaj	-10.6082
▁kuldeep	-10.6083
▁aankada	-10.6084
▁prabharee	-10.6084
▁jet	-10.6087
▁tum	-10.6089
▁manipur	-10.6091
▁laagat	-10.6096
▁petroleum	-10.6103
▁lokpal	-10.6113
▁electoral	-10.6113
▁command	-10.6115
▁hafiz	-10.6118
▁sthal	-10.6118
▁declined	-10.6119
▁ain	-10.6122
▁kalyaan	-10.6122
▁gendbaajon	-10.6128
▁idi	-10.6129
▁urban	-10.6131
▁basic	-10.6139
▁purna	-10.6145
▁prevent	-10.6145
▁supply	-10.6146
▁dilachasp	-10.6147
▁paryaapt	-10.6149
▁subject	-10.6162
▁recruitment	-10.6164
▁maintain	-10.6165
▁81	-10.6165
▁brothers	-10.6165
▁paaenge	-10.6169
▁rise	-10.6175
▁sensor	-10.6176
▁tests	-10.6177
▁starts	-10.6178
▁catch	-10.618
▁ninda	-10.6192
▁lakhon	-10.6192
▁plus	-10.62
▁sakenge	-10.6202
▁shaq	-10.6207
▁91	-10.6209
duusare	-10.6211
▁79	-10.6213
▁su	-10.6217
▁changing	-10.6234
▁sections	-10.6236
▁agriculture	-10.6237
▁babu	-10.6237
▁studies	-10.6252
▁whereas	-10.6253
▁cold	-10.6256
▁nearly	-10.6256
▁sanjeev	-10.6259
▁niveshkon	-10.6261
▁growing	-10.6261
▁pandit	-10.6265
▁signed	-10.6267
ati	-10.6268
▁bolne	-10.6274
▁supporting	-10.6279
▁pandya	-10.628
▁2014,	-10.6282
▁innocent	-10.629
▁pant	-10.6291
wa	-10.6291
▁criticized	-10.6294
▁jediu	-10.6295
▁umesh	-10.6296
▁bheje	-10.6301
▁likhi	-10.6308
▁risk	-10.6309
▁french	-10.6311
▁dilip	-10.6314
▁karengi	-10.6315
▁mitra	-10.6316
▁vaajapeyi	-10.6318
▁khurshid	-10.6318
▁vikas	-10.6325
▁aaazaad	-10.6329
▁azad	-10.633
▁memory	-10.6341
▁sahvaag	-10.6343
▁penalty	-10.6344
son	-10.6346
▁sutara	-10.6358
▁luk	-10.636
▁bringing	-10.6361
▁dukh	-10.6362
▁gharon	-10.6365
▁achieved	-10.637
▁natural	-10.6371
▁29,	-10.6374
▁aresas	-10.6375
rahul	-10.6375
▁khatre	-10.6378
▁93	-10.6379
▁hari	-10.6384
▁id	-10.6387
▁resigned	-10.6387
▁rbi	-10.6388
▁shami	-10.6389
▁darshan	-10.6391
▁tenure	-10.6394
▁88	-10.6395
▁chitthee	-10.6397
▁greater	-10.64
▁jat	-10.6409
▁maharaj	-10.6411
▁aguwai	-10.6415
▁mid	-10.6419
▁lone	-10.642
▁chaatra	-10.6421
▁bataane	-10.6425
▁hooda	-10.6431
▁piyush	-10.6432
▁awarded	-10.6435
▁kailash	-10.6435
▁mukhyalay	-10.6443
▁package	-10.6454
▁sangeet	-10.6454
▁likely	-10.6455
▁bharaa	-10.6458
▁annual	-10.6459
▁24,	-10.6461
▁root	-10.6461
▁janmdin	-10.6464
▁samsung	-10.6465
▁tension	-10.6469
▁sen	-10.6475
▁washington	-10.6476
▁toll	-10.6476
film	-10.6481
▁figure	-10.6482
▁holi	-10.6487
▁suna	-10.6488
▁happiness	-10.649
▁views	-10.6493
▁danger	-10.6493
▁voter	-10.6495
▁ayukta	-10.6499
▁bijness	-10.6504
▁knows	-10.6506
▁storage	-10.6506
▁initiative	-10.6508
▁chizon	-10.6509
▁sexual	-10.6511
▁devotees	-10.6515
▁beaten	-10.6516
▁pole	-10.6522
▁l	-10.6523
▁helped	-10.6525
▁door	-10.6534
▁mahindra	-10.6535
▁sakaaratmak	-10.6539
go	-10.6544
▁stocks	-10.6553
▁sabko	-10.6555
▁crpf	-10.6557
▁submitted	-10.6561
▁120	-10.6566
▁welcome	-10.6568
▁upset	-10.6569
12	-10.6576
▁street	-10.6578
▁udaan	-10.6578
▁anger	-10.658
19	-10.6581
▁satish	-10.6582
▁250	-10.6585
▁munh	-10.6591
▁self	-10.6591
▁happens	-10.6604
▁expensive	-10.6608
▁approval	-10.6611
▁pate	-10.6611
▁marks	-10.6613
▁st	-10.6621
▁kanhaiya	-10.6621
clock	-10.6622
▁pathan	-10.6627
▁01	-10.6628
▁khaadya	-10.663
▁roj	-10.663
▁pariwaron	-10.6631
▁naksaliyon	-10.6632
▁nirmala	-10.6636
▁farm	-10.6641
▁sunny	-10.6643
▁majaboor	-10.6649
▁sales	-10.6659
▁source	-10.6662
▁swatantraaa	-10.6663
▁gati	-10.6664
▁shulk	-10.6665
▁fired	-10.6666
▁23,	-10.6668
▁shart	-10.6671
▁false	-10.6671
▁journalists	-10.6672
▁amendment	-10.6675
▁chijen	-10.6679
charge	-10.6682
▁cat	-10.6684
▁mcd	-10.6689
▁milk	-10.669
▁celebrated	-10.669
kya	-10.6692
▁karachi	-10.6702
▁weight	-10.6704
▁bolaa	-10.6715
pan	-10.6715
▁drama	-10.6717
▁vijeta	-10.6731
▁colleges	-10.6732
▁uma	-10.674
▁ganesh	-10.6742
▁progress	-10.6742
▁argedy	-10.6748
▁javed	-10.6749
▁store	-10.6751
▁trailor	-10.6752
▁pashchimi	-10.6753
▁vyapak	-10.6755
▁maarane	-10.6758
▁matadaataaon	-10.6766
▁dard	-10.6767
▁wish	-10.6768
▁letters	-10.6768
▁sisitivi	-10.6769
▁nivasee	-10.6776
▁unbeaten	-10.678
▁el	-10.6789
▁groups	-10.6791
▁bhejne	-10.6797
▁hairaan	-10.6798
▁shikshak	-10.6802
▁feature	-10.6809
▁nichle	-10.6809
▁bahadur	-10.6811
▁bhagwat	-10.6814
▁york	-10.6817
▁jodhpur	-10.6819
▁cow	-10.6822
▁suffering	-10.6831
▁coalition	-10.6831
▁meetings	-10.6835
▁technical	-10.6836
▁kaushal	-10.6837
▁protesters	-10.6841
▁consumer	-10.6842
▁sarvocch	-10.6844
▁bombai	-10.6846
▁nawaz	-10.6851
▁paris	-10.6851
▁h	-10.686
hamane	-10.686
▁baharhaal	-10.6868
▁sentence	-10.687
▁afasar	-10.6872
▁looks	-10.6873
▁kho	-10.6874
▁records	-10.6879
▁galaxy	-10.688
▁exiaar	-10.6883
me	-10.6884
▁disease	-10.6893
▁1,000	-10.6896
▁vidya	-10.6897
▁12.	-10.6897
▁kaale	-10.6903
▁contract	-10.6907
▁selling	-10.6909
▁chair	-10.6911
▁hajaare	-10.6914
▁12:	-10.6915
▁isro	-10.6915
▁nilambit	-10.6918
▁orders	-10.6922
▁effective	-10.6923
▁easily	-10.693
▁samarthak	-10.6932
▁formation	-10.6932
▁upabhokta	-10.6933
▁sthanon	-10.6935
▁sahib	-10.6937
▁likhe	-10.6938
▁imaarat	-10.6938
▁vayusena	-10.6939
mp	-10.694
▁adhyakshata	-10.6943
▁paak	-10.6943
▁adheekshak	-10.6943
▁majbootee	-10.6946
▁jaanane	-10.6947
▁jode	-10.6948
▁bridge	-10.6949
▁98	-10.6954
▁daud	-10.6954
▁kharidne	-10.6955
▁begin	-10.696
▁maha	-10.6961
▁pahunchaaya	-10.6963
▁kher	-10.697
▁allahabad	-10.6972
▁dengue	-10.6979
comments	-10.6979
member	-10.6984
▁riots	-10.6985
▁navy	-10.6988
▁flag	-10.699
▁bataur	-10.6992
▁contesting	-10.6994
▁lines	-10.6996
▁villagers	-10.6996
▁installed	-10.6997
▁96	-10.7002
▁kaarnon	-10.7003
▁fitness	-10.7003
▁sub	-10.7005
▁vyavhaar	-10.7005
▁withdraw	-10.7011
▁bharatiyon	-10.7014
▁dalits	-10.7017
▁yamuna	-10.7023
▁uddeshy	-10.7027
▁hazaar	-10.7027
▁laa	-10.7028
▁moon	-10.7039
▁dangerous	-10.7047
▁mallya	-10.7047
▁03	-10.7048
▁warned	-10.7052
▁gaanvon	-10.7053
▁chakka	-10.706
▁art	-10.7063
▁vigyaapan	-10.7063
▁sectors	-10.7066
▁vaahanon	-10.7067
▁weather	-10.7071
▁jagat	-10.7073
▁shilpa	-10.7075
▁sarkaron	-10.709
▁dixit	-10.7092
▁10,000	-10.7092
▁ex	-10.7093
so	-10.7096
▁formula	-10.7096
▁presidential	-10.7096
▁escaped	-10.71
▁opposing	-10.7102
ap	-10.7103
▁udghaatan	-10.7107
▁2003	-10.7111
▁solution	-10.7111
▁twice	-10.7113
▁provision	-10.7114
▁lokapal	-10.7117
▁standard	-10.712
▁nyaayik	-10.7134
▁booth	-10.7134
▁masood	-10.7136
▁distance	-10.7138
▁worship	-10.7142
▁carrying	-10.7147
▁upachunaav	-10.7149
▁dikhaane	-10.715
▁abhyaas	-10.717
▁bhavan	-10.7173
▁strengthen	-10.7173
▁promised	-10.7177
▁regional	-10.7179
▁alia	-10.7183
▁badmaashon	-10.7183
▁backward	-10.7193
ake	-10.7201
▁tejashwi	-10.7201
▁iskar	-10.7204
▁demands	-10.7207
▁sim	-10.7213
▁struggle	-10.7217
▁carry	-10.7219
▁musharraf	-10.7229
▁ensipi	-10.7237
▁gaanaa	-10.7238
▁googletag	-10.7248
▁sahitya	-10.725
▁compensation	-10.7258
▁sainik	-10.726
▁key	-10.7262
▁abdullah	-10.7265
▁kaksha	-10.7266
▁degrees	-10.7267
▁europe	-10.7268
▁ichha	-10.7271
▁22,	-10.7275
▁khaskar	-10.7275
▁mudra	-10.7277
▁rank	-10.7279
▁doston	-10.728
▁calls	-10.7281
▁flood	-10.7283
▁aiims	-10.7285
ge	-10.7295
▁amarnath	-10.7296
▁bin	-10.7299
▁kishor	-10.7299
election	-10.73
▁colony	-10.7305
▁sthapana	-10.7307
▁raped	-10.7308
when	-10.7308
narendramodi	-10.7308
▁saport	-10.731
▁payalat	-10.7314
▁anniversary	-10.7317
▁joining	-10.7317
▁mathura	-10.7318
▁30,	-10.7319
▁chit	-10.7321
▁chota	-10.7322
▁assured	-10.7323
▁guna	-10.7326
▁deshbhar	-10.733
▁seventh	-10.7332
▁samajha	-10.7332
▁istife	-10.7333
▁baraabar	-10.7333
▁spend	-10.7333
▁ro	-10.7335
▁kahata	-10.7338
▁viksit	-10.734
▁invited	-10.734
▁rin	-10.7343
▁importance	-10.7345
▁sthagit	-10.7347
▁liked	-10.735
▁punjabi	-10.7353
▁07	-10.7354
▁lut	-10.7354
▁padosi	-10.7359
▁liter	-10.7359
▁deol	-10.7371
▁immediate	-10.7376
▁pankaj	-10.7378
▁kilometers	-10.7381
▁ongoing	-10.7382
▁telling	-10.7383
▁aapurti	-10.7384
▁listen	-10.7386
▁sure	-10.739
▁jnu	-10.7397
our	-10.7402
▁saadhaa	-10.7403
▁push	-10.741
▁sam	-10.7414
▁units	-10.7418
▁uk	-10.7421
▁surgery	-10.7422
▁kala	-10.7424
▁convicted	-10.7427
▁primary	-10.7432
▁holding	-10.7432
▁shivraj	-10.7435
▁dual	-10.7441
▁drugs	-10.7442
▁mob	-10.7444
▁prashanth	-10.7445
▁afternoon	-10.745
▁prayek	-10.7453
▁retired	-10.7456
ton	-10.7459
▁mahaan	-10.7459
▁zimbabwe	-10.746
▁jitendra	-10.7461
▁naaraazgi	-10.7464
▁pul	-10.7469
▁salaahkaar	-10.7473
▁maalya	-10.7476
▁magazine	-10.7479
▁robert	-10.7481
▁bhari	-10.7483
▁meteorological	-10.7488
▁gogoi	-10.7489
▁looked	-10.749
captain	-10.749
▁feeling	-10.749
▁gift	-10.749
▁kha	-10.749
▁gate	-10.7493
▁kin	-10.7494
▁sansaadhan	-10.7495
▁tough	-10.7496
▁ghanton	-10.7501
▁flats	-10.7502
▁mal	-10.7504
▁darja	-10.7508
▁proceedings	-10.751
▁millions	-10.7511
▁dhang	-10.7512
▁copy	-10.7512
▁gat	-10.7517
30	-10.7518
▁profit	-10.7524
▁kabir	-10.7525
▁sang	-10.7525
▁touch	-10.753
▁click	-10.7532
▁powerful	-10.7536
▁94	-10.7537
▁intention	-10.7538
▁diye	-10.7541
▁kaamkaaj	-10.7543
▁khatarnaak	-10.7545
▁amritsar	-10.7547
mumbai	-10.755
▁hurt	-10.755
pradhanmantri	-10.7552
▁track	-10.7554
▁owner	-10.7566
▁banakar	-10.7566
▁stories	-10.7568
▁sahaara	-10.757
▁instructions	-10.7575
▁vikram	-10.758
▁ucchtam	-10.7583
▁insaan	-10.7584
▁baby	-10.7586
▁taran	-10.7591
▁dukaan	-10.7591
▁maatra	-10.7595
▁filled	-10.7595
▁tejasvi	-10.7595
▁peter	-10.76
▁garibon	-10.7604
▁koyala	-10.7606
▁mani	-10.761
▁hundred	-10.761
▁inkaa	-10.761
▁referring	-10.761
▁shiva	-10.761
▁equal	-10.7615
▁write	-10.762
▁jio	-10.7622
▁chor	-10.7624
▁ceo	-10.7624
▁dedh	-10.7628
▁cpi	-10.7629
▁policies	-10.7633
singh	-10.7634
▁jayanti	-10.7636
▁tut	-10.7638
▁negative	-10.7643
▁hat	-10.765
▁maatr	-10.7671
▁perform	-10.7675
▁bought	-10.7675
▁dharmendra	-10.7676
▁moved	-10.7678
▁pradeep	-10.7687
▁considering	-10.7693
▁commercial	-10.7693
▁beating	-10.7695
▁page	-10.7695
▁surrounded	-10.7696
▁ma	-10.7697
▁odis	-10.7697
▁aapraadhik	-10.7699
▁nomination	-10.7705
▁numbers	-10.7708
▁shi	-10.7709
▁purpose	-10.7716
▁simit	-10.7718
▁drinking	-10.7719
▁cheharaa	-10.7719
▁saeed	-10.7721
▁grahan	-10.7726
▁bansal	-10.7731
▁anusuchit	-10.7731
▁word	-10.7734
▁corporate	-10.7734
▁remarks	-10.7734
▁malaysia	-10.7737
▁premier	-10.7738
▁brazil	-10.7745
▁violation	-10.7746
▁betaa	-10.7749
▁arms	-10.7761
▁salaami	-10.7773
▁beijing	-10.7778
▁jabt	-10.7783
▁books	-10.7786
▁swarna	-10.7789
▁kapade	-10.7792
▁fit	-10.7795
▁shikshakon	-10.7802
▁faith	-10.7806
▁citizen	-10.7814
▁john	-10.7814
▁gail	-10.7818
▁jinaki	-10.782
var	-10.7824
▁plea	-10.7825
▁eating	-10.7829
▁nirvachan	-10.7832
▁software	-10.7836
▁brands	-10.7836
▁sani	-10.7839
▁anant	-10.784
▁falling	-10.784
▁irfan	-10.7841
▁laapata	-10.7843
▁hanging	-10.7843
▁khule	-10.7844
▁highway	-10.7845
▁manyata	-10.7846
▁walk	-10.7847
▁castes	-10.7847
▁rajnatik	-10.7848
ali	-10.785
▁swatantra	-10.7855
▁dikkat	-10.7857
▁tremendous	-10.7857
▁06	-10.7858
▁naare	-10.7859
▁either	-10.7861
▁infrastructure	-10.7862
▁israel	-10.7866
june	-10.7867
▁openly	-10.7871
van	-10.7873
▁khun	-10.7875
▁bhagat	-10.7876
▁kareena	-10.7881
▁lokayukta	-10.7886
▁vinay	-10.7889
▁asli	-10.7896
▁aegi	-10.7896
▁critical	-10.7901
▁receiving	-10.7906
▁amarinder	-10.7908
▁ability	-10.7916
▁implement	-10.7926
11	-10.7933
▁prabhu	-10.7934
sar	-10.7934
▁badhaakar	-10.7941
▁loans	-10.7943
▁daawey	-10.7948
▁mujhase	-10.7948
yaan	-10.7954
▁centuries	-10.7956
▁celebrate	-10.7958
▁durghatana	-10.796
▁uttari	-10.7961
▁hathiyaaron	-10.7962
▁raut	-10.7962
▁netaji	-10.7964
▁naveen	-10.7964
san	-10.7965
▁utaar	-10.7967
▁daalane	-10.7967
▁whenever	-10.7968
▁centers	-10.7968
▁shraddha	-10.7971
▁rawat	-10.7974
cha	-10.7974
▁sagar	-10.7977
▁sadhvi	-10.7977
▁complaints	-10.7981
▁bolte	-10.7985
▁peshkash	-10.7986
▁spain	-10.7987
▁padane	-10.7991
wal	-10.7995
▁brand	-10.7995
▁badhate	-10.7996
▁choice	-10.7997
for	-10.8003
▁streets	-10.8008
▁lakshmi	-10.8013
▁1999	-10.8015
▁jurmaana	-10.8024
▁jayalalita	-10.8026
▁confident	-10.8031
▁era	-10.8038
▁gun	-10.8041
▁mood	-10.8049
▁pilot	-10.8051
▁town	-10.8051
▁mangal	-10.8054
▁cars	-10.8054
▁lawyers	-10.8055
▁shivaraj	-10.8055
▁karaae	-10.8059
▁chhedchhad	-10.8062
▁zarurat	-10.8067
▁anushka	-10.8069
▁complex	-10.8071
▁sammanit	-10.8075
▁tehraaya	-10.8076
▁alok	-10.8077
▁yugers	-10.8078
▁kshetreey	-10.8079
▁bengalooru	-10.8084
akar	-10.8085
▁aalia	-10.8086
▁oath	-10.8087
▁weekend	-10.8088
▁surya	-10.8089
▁bilateral	-10.8089
▁sifarish	-10.8091
▁cor	-10.8094
▁via	-10.8096
▁sea	-10.8101
▁silsile	-10.8105
▁visiting	-10.8109
▁measures	-10.8109
▁huin	-10.8117
▁drug	-10.8118
▁maujuudagi	-10.8122
▁rupaya	-10.8127
su	-10.8128
▁affidavit	-10.8136
sha	-10.8142
▁secret	-10.8147
▁shashi	-10.8151
▁musalamaanon	-10.8152
▁vajan	-10.8153
▁hussain	-10.8155
▁gangrape	-10.8155
▁surveykshan	-10.8161
▁sell	-10.8165
indian	-10.8165
▁chuttee	-10.8166
▁pet	-10.8167
▁11:	-10.8171
▁mahatv	-10.8172
▁marane	-10.8173
▁route	-10.818
▁bain	-10.8183
▁salanaa	-10.8187
▁kovind	-10.8189
▁namakan	-10.819
▁facility	-10.8194
▁kaaryakari	-10.8195
▁passing	-10.8197
▁dilaane	-10.8197
▁sidhu	-10.8199
▁mode	-10.8209
▁corner	-10.8215
▁tripura	-10.8219
▁khaataa	-10.8224
▁digits	-10.8225
▁ol	-10.8226
▁gaayab	-10.8226
▁beemaa	-10.8227
▁saunp	-10.8227
▁throughout	-10.8229
▁hossain	-10.8241
▁benefits	-10.8242
▁pathankot	-10.8251
▁promise	-10.8252
▁meters	-10.8255
▁ped	-10.8256
▁damage	-10.826
▁dmk	-10.8261
▁nirdeshak	-10.8263
▁programs	-10.8264
▁taj	-10.8265
▁tarika	-10.8266
▁communal	-10.8267
▁resign	-10.8268
▁vija	-10.8271
▁spikar	-10.8275
▁125	-10.8277
▁worker	-10.8292
▁virendra	-10.83
▁elahabaad	-10.8303
▁sandarbh	-10.8306
▁herself	-10.8309
▁samhita	-10.8311
▁rakhen	-10.8313
▁sending	-10.8313
▁nateeja	-10.8317
▁required	-10.8319
▁resources	-10.8326
▁asif	-10.8329
▁niyamit	-10.8334
▁punishment	-10.8335
▁fadnavis	-10.8336
▁complained	-10.8344
▁yeddyurappa	-10.8345
▁nabi	-10.8349
▁tea	-10.835
je	-10.8352
▁ghaziabad	-10.8353
▁guilty	-10.8358
▁patients	-10.836
▁gavaskar	-10.8362
▁micro	-10.8364
▁paryaavaran	-10.8368
▁tri	-10.8369
▁lagegaa	-10.8373
▁championships	-10.8374
▁ratna	-10.8379
▁saved	-10.838
▁earned	-10.8381
▁airline	-10.8383
▁lankan	-10.8387
desh	-10.8388
pt	-10.8389
▁kram	-10.8394
▁rising	-10.8394
▁yuvati	-10.8395
▁correct	-10.8398
▁warrant	-10.8399
▁vigyaan	-10.8401
▁inter	-10.8401
▁sonakshi	-10.8401
▁vyaktigat	-10.8402
▁ganguly	-10.8403
▁hundreds	-10.8406
▁laute	-10.8408
▁amazing	-10.8409
▁engineering	-10.841
▁silent	-10.8413
▁abdulla	-10.8416
▁kaman	-10.8416
ik	-10.8416
▁roka	-10.8421
▁durga	-10.8426
▁sahaayak	-10.8427
▁bit	-10.8427
▁putting	-10.8427
▁tasveeron	-10.8436
▁udhaaharan	-10.8436
▁estate	-10.8442
▁lekhak	-10.8445
▁samskruti	-10.8446
▁advance	-10.8448
▁samajhane	-10.8449
by	-10.845
▁samasyaon	-10.8455
march	-10.8456
▁omar	-10.8459
▁uri	-10.846
▁hindus	-10.846
▁circumstances	-10.846
▁ruckus	-10.8462
▁baccha	-10.8463
▁spin	-10.8464
▁province	-10.8464
▁malhotra	-10.8465
▁draft	-10.8466
▁vivaah	-10.8472
▁suspected	-10.8476
▁jitna	-10.8477
▁sabake	-10.8477
▁aavanton	-10.8485
▁shocked	-10.8486
▁multi	-10.8486
▁protests	-10.8487
▁vastu	-10.8496
▁jaya	-10.8511
▁hrithik	-10.8518
▁jayalalithaa	-10.8524
ru	-10.8526
▁doodh	-10.853
▁balance	-10.8536
▁gathered	-10.8537
▁inch	-10.8538
▁karodon	-10.8546
▁ak	-10.8546
▁traders	-10.8547
▁utpaada	-10.8547
▁padhane	-10.8548
▁vishaal	-10.855
▁paanchaven	-10.8554
▁puunji	-10.8554
▁aakhirkaar	-10.8555
▁jaaengi	-10.8566
▁poverty	-10.8569
▁prashant	-10.857
▁kumbh	-10.8571
▁european	-10.8574
▁sanskrit	-10.8577
▁delay	-10.8586
▁earth	-10.8592
▁counter	-10.8593
▁jatke	-10.8597
▁harish	-10.8602
▁challenged	-10.8603
▁kinare	-10.8604
▁rahen	-10.8608
▁nirdaleey	-10.8609
▁navaj	-10.8613
ad	-10.8613
▁parade	-10.8616
▁sadasyeey	-10.8617
▁papers	-10.8623
▁pej	-10.8623
du	-10.8624
▁initial	-10.8627
▁marpet	-10.8628
▁citizenship	-10.8631
▁espi	-10.8631
▁email	-10.8637
▁yakeen	-10.864
▁headed	-10.8645
▁karuunga	-10.8647
▁decades	-10.865
▁daleel	-10.865
▁kaid	-10.8651
▁episode	-10.8657
▁alive	-10.8663
▁iit	-10.8665
▁parivahan	-10.8672
▁bsf	-10.8677
▁bhare	-10.8682
▁shahari	-10.8683
▁karina	-10.8684
▁adhiktam	-10.8689
▁hospitals	-10.8696
▁pakadaa	-10.87
▁dhire	-10.8707
▁currency	-10.871
▁unheen	-10.871
▁aapatti	-10.8716
▁bura	-10.8721
▁matadaata	-10.8723
▁understood	-10.8723
▁advocate	-10.8723
▁bhojan	-10.8729
▁spoken	-10.8731
▁dig	-10.8732
▁aword	-10.8746
▁rather	-10.8751
▁promotion	-10.8754
▁sah	-10.8755
▁studying	-10.8756
▁sharp	-10.8759
▁khelte	-10.8759
▁ganguli	-10.8763
▁sonu	-10.8764
▁forget	-10.8765
▁reeha	-10.8768
▁1998	-10.8769
▁nirmaataa	-10.8772
▁nirbhar	-10.8773
▁1993	-10.878
▁isiilie	-10.878
▁captaini	-10.8781
▁lose	-10.8781
▁siddhu	-10.8781
▁features	-10.8783
▁nikalne	-10.8784
▁truck	-10.8787
▁motion	-10.8789
▁unique	-10.879
▁pakshon	-10.8791
▁2001	-10.8793
▁prepare	-10.8794
▁1984	-10.8806
17	-10.8807
▁web	-10.8807
except	-10.8809
▁mahagathbandhan	-10.8811
▁09	-10.8812
▁table	-10.8813
▁nirdesan	-10.8814
▁azam	-10.8815
▁dwipaksheeya	-10.8824
▁awards	-10.8825
▁saina	-10.8827
▁naaballig	-10.8831
▁respectively	-10.8831
▁mantra	-10.8841
ry	-10.8845
▁exercise	-10.8847
▁shodh	-10.8848
▁praant	-10.8849
▁nishaan	-10.8849
▁graduate	-10.885
▁adhinium	-10.885
▁bharne	-10.885
▁bhul	-10.8851
▁kamaal	-10.8858
▁maat	-10.886
▁promote	-10.886
▁nikle	-10.8863
▁indrani	-10.8869
▁failure	-10.8873
▁ramlila	-10.8875
▁haadasa	-10.8877
▁chauthi	-10.8884
▁rich	-10.8885
▁milenge	-10.8888
▁shila	-10.889
▁hastakshar	-10.8897
▁guarantee	-10.8902
▁type	-10.8903
▁aayaat	-10.8909
▁relatives	-10.891
▁favorite	-10.8917
▁audio	-10.8918
▁aktubar	-10.8919
official	-10.893
▁wing	-10.8932
▁mashin	-10.8936
iyaan	-10.8938
▁prashikshan	-10.8955
▁vivaadit	-10.8957
▁ekmaatr	-10.8957
?"	-10.8961
▁utar	-10.8962
▁seized	-10.8964
aki	-10.8969
▁fulfill	-10.8979
ll	-10.8984
▁plastic	-10.8985
▁types	-10.8986
▁update	-10.8987
▁ravat	-10.8992
▁agent	-10.8995
let	-10.8996
▁ghayalon	-10.9002
▁estimated	-10.9002
▁hot	-10.9004
▁shabdon	-10.901
▁veteran	-10.9012
▁ba	-10.9016
▁thanks	-10.9019
▁nibhaa	-10.9019
▁nearby	-10.902
one	-10.9021
▁resolution	-10.9024
▁rafel	-10.9027
▁ibrahim	-10.9028
▁devgan	-10.9033
▁badhaayaa	-10.9034
▁600	-10.9034
▁highlights	-10.904
▁maaloom	-10.9043
▁raah	-10.9048
ness	-10.9048
▁lagate	-10.9053
▁communist	-10.9056
▁activist	-10.9062
▁garibi	-10.9064
▁urf	-10.9065
▁sisodia	-10.9068
▁adaa	-10.9072
▁drive	-10.9077
▁ghatakar	-10.9077
▁properly	-10.9078
▁excited	-10.9082
▁joardaar	-10.9083
▁vadra	-10.9084
▁stood	-10.9087
▁promises	-10.9089
▁nateezon	-10.9091
▁shinde	-10.9092
▁tourism	-10.91
▁lagati	-10.9102
▁electronic	-10.9106
▁detained	-10.9106
▁hanuman	-10.9107
▁bose	-10.9107
china	-10.9109
▁kamyaabi	-10.911
▁ajam	-10.9118
▁laden	-10.912
▁sandeep	-10.912
▁driving	-10.912
lal	-10.9122
▁sidhaa	-10.9122
▁squad	-10.9125
▁generation	-10.9125
▁apadet	-10.9126
▁asal	-10.9126
▁jinda	-10.9131
▁bhaavana	-10.9132
▁delivery	-10.9132
▁termed	-10.9133
▁anupam	-10.9133
▁pace	-10.9138
▁aashwaasan	-10.9138
▁permanent	-10.9142
▁jon	-10.9142
▁interested	-10.9143
▁quoted	-10.915
pe	-10.916
▁alam	-10.9164
▁breaking	-10.9164
▁sleep	-10.9166
▁soni	-10.9172
▁fanse	-10.9172
▁patiala	-10.9172
▁sampradayik	-10.9175
▁jeeyo	-10.9178
q	-10.9183
▁likhit	-10.9183
▁cameras	-10.9185
▁sakshi	-10.9189
-3	-10.9189
ca	-10.9191
▁sevaaon	-10.9192
▁drone	-10.9193
▁daron	-10.9202
▁sakegaa	-10.9203
▁sms	-10.9207
▁stayed	-10.9208
▁audyogic	-10.9213
▁anuchhed	-10.9216
▁ghatnaayen	-10.9217
▁10:	-10.9219
▁bear	-10.9226
▁lokapriy	-10.9227
▁bahubali	-10.9229
▁daliton	-10.9233
▁mutual	-10.9233
▁kaala	-10.9235
▁agree	-10.9236
▁afasaron	-10.9238
▁bhu	-10.9243
▁nikali	-10.9254
▁dikhe	-10.926
▁bachane	-10.9272
▁anderson	-10.9273
▁friendship	-10.9276
▁garv	-10.9278
▁ghuspaith	-10.9283
▁counting	-10.9284
▁nibhaai	-10.9284
▁historic	-10.9285
▁toilet	-10.9289
▁facts	-10.9289
▁arji	-10.9292
▁eastern	-10.9292
▁1990	-10.9297
▁sign	-10.9297
▁khol	-10.9303
▁jhooth	-10.9303
▁smartphones	-10.9304
▁affect	-10.9311
▁host	-10.9317
▁deshmukh	-10.9318
▁timen	-10.9319
bhaajapa	-10.9323
july	-10.9324
▁booking	-10.9325
▁afraid	-10.9328
▁sandip	-10.9331
▁antariksh	-10.9338
▁tradition	-10.9342
▁mukhiya	-10.9344
▁jantar	-10.9346
▁brilliant	-10.9352
▁transfer	-10.9365
▁pitayee	-10.937
▁jashn	-10.9371
▁sona	-10.9371
▁payment	-10.9372
▁fark	-10.9374
▁businessman	-10.9375
▁probably	-10.9375
▁phans	-10.9376
▁chalati	-10.9377
▁republic	-10.9382
▁megapixl	-10.9384
▁admit	-10.9386
▁advised	-10.9386
▁kabje	-10.9387
▁creating	-10.9388
▁chalegaa	-10.9388
▁drink	-10.9394
▁gussa	-10.9396
▁dekhe	-10.9397
▁khelnaa	-10.9401
▁beuro	-10.9403
▁2020	-10.9405
▁aviation	-10.9406
▁jaanata	-10.9406
▁mahajan	-10.9407
▁satellite	-10.9414
▁pragati	-10.9414
▁ministerial	-10.9417
▁resolve	-10.9418
▁hopes	-10.9418
▁allocation	-10.9425
▁ofer	-10.9425
▁sugar	-10.9428
▁chaalak	-10.943
▁storm	-10.9432
▁1996	-10.9438
▁removal	-10.9438
▁touched	-10.9444
▁contested	-10.9448
▁cycle	-10.9448
▁likhakar	-10.9449
▁ias	-10.9449
▁apple	-10.9451
▁gov	-10.9452
▁arrival	-10.9465
▁gambhirtha	-10.9466
star	-10.947
bihar	-10.948
▁jaane	-10.9485
▁except	-10.9486
▁ganvaa	-10.9489
▁ruled	-10.9493
▁lying	-10.9493
▁rajasav	-10.9493
november	-10.9494
▁kamishnar	-10.9496
▁fasal	-10.9499
▁emsidi	-10.9499
▁zero	-10.9502
▁vyast	-10.9504
▁poll	-10.9505
▁telugu	-10.9505
▁modern	-10.9509
bhartiya	-10.951
▁content	-10.9511
▁disaster	-10.9512
ie	-10.9514
▁res	-10.9521
▁kaur	-10.9525
▁ishaara	-10.9526
▁sunrisers	-10.9526
▁passenger	-10.9527
▁ac	-10.9531
▁youths	-10.9534
september	-10.9534
▁skin	-10.9535
▁parampara	-10.9535
▁manaane	-10.9536
▁visible	-10.9538
▁mirza	-10.9547
lo	-10.9547
▁providing	-10.9549
▁shroff	-10.9551
▁bond	-10.9554
▁anoushka	-10.9562
august	-10.9562
▁khoj	-10.9565
▁badminton	-10.9565
▁wall	-10.9566
▁ambulance	-10.9567
▁milanaa	-10.9569
▁desai	-10.957
▁ward	-10.9573
▁shops	-10.9576
▁arabiai	-10.9589
▁noton	-10.9589
▁pulwama	-10.9595
▁hamid	-10.9596
▁meena	-10.9597
15	-10.9602
▁finished	-10.9605
▁visa	-10.9605
▁guzar	-10.9607
▁triple	-10.9613
▁afridi	-10.9614
▁ambassador	-10.9615
▁ladakh	-10.9616
▁dhanyavad	-10.962
▁jyoti	-10.9623
▁hence	-10.9623
▁gathit	-10.9625
▁dher	-10.9626
▁kaabo	-10.9627
mo	-10.9633
▁saurabh	-10.9637
▁controversial	-10.9638
13	-10.9641
▁laws	-10.9647
apane	-10.9649
▁purushon	-10.9649
▁functioning	-10.965
▁events	-10.9653
lu	-10.9653
▁lau	-10.9658
▁indonesia	-10.9659
▁yaheen	-10.9659
▁aligarh	-10.966
▁buying	-10.9662
▁phens	-10.9665
▁chalaaya	-10.9668
▁opener	-10.9673
▁nausena	-10.9682
▁niryaat	-10.9682
▁dimag	-10.9683
▁sochaa	-10.9684
▁motors	-10.9687
▁channels	-10.9691
▁feels	-10.9692
▁jinka	-10.9694
▁mritak	-10.9695
▁siio	-10.97
▁dm	-10.9701
▁behavior	-10.9702
▁bagaiyr	-10.9702
▁prerit	-10.9702
▁pulicekarmiyon	-10.9702
▁prashn	-10.9705
▁shrinkhalaa	-10.9706
▁representatives	-10.9712
▁gale	-10.9712
▁chaalu	-10.9713
▁paimaane	-10.9714
▁peechha	-10.9718
april	-10.9719
▁pathak	-10.9719
▁ri	-10.9721
▁lie	-10.9721
▁kumble	-10.9723
tha	-10.9724
▁doorsanchaar	-10.9724
▁fadanvis	-10.9725
▁welcomed	-10.9726
▁padukone	-10.9727
▁phones	-10.9727
▁sabsidi	-10.9729
▁lieutenant	-10.973
▁lav	-10.9732
ganj	-10.9732
▁fiercely	-10.9733
▁pra	-10.9734
▁targeting	-10.9734
▁motor	-10.9737
▁ejineering	-10.9743
▁perhaps	-10.9743
▁granted	-10.9743
▁pratham	-10.9743
▁yediurppa	-10.9744
▁watson	-10.9745
▁bureau	-10.9753
▁crude	-10.9754
▁lo	-10.9755
▁takneekee	-10.9759
▁implementation	-10.9761
▁neha	-10.9762
▁ghosh	-10.9762
▁value	-10.9763
▁tark	-10.9764
▁achieve	-10.9767
▁utaara	-10.9772
▁kalakaar	-10.9773
▁nature	-10.9776
▁slogan	-10.9778
▁lautne	-10.978
▁bhojpuri	-10.9782
▁unable	-10.9787
▁pine	-10.9788
▁gdp	-10.979
▁ceasefire	-10.979
▁uth	-10.9792
25	-10.9797
▁daale	-10.9799
▁constitutional	-10.98
▁african	-10.9802
▁sahamat	-10.9805
▁manaaya	-10.9813
▁selfi	-10.9814
▁madhyapradesh	-10.9817
▁ames	-10.9818
▁sant	-10.982
▁sansthaanon	-10.9822
▁takanic	-10.9824
party	-10.983
▁sky	-10.9833
▁anshan	-10.9833
▁pradarshnakariy	-10.9834
▁product	-10.9834
▁adhiktar	-10.9839
▁ni	-10.984
▁sense	-10.9841
▁marathi	-10.9841
▁desire	-10.9842
▁graahak	-10.9843
▁karo	-10.9844
▁badly	-10.9845
▁prince	-10.9846
▁script	-10.9847
▁blog	-10.9847
▁sushant	-10.985
▁gayle	-10.985
▁cbse	-10.9852
▁01:	-10.9853
▁ojha	-10.9855
▁maani	-10.9856
▁warning	-10.9858
▁murdered	-10.9863
▁pulicekarmi	-10.9863
mah	-10.9863
▁sons	-10.9864
▁exit	-10.9865
▁alcohol	-10.9865
▁sachai	-10.9866
▁motorcycle	-10.9866
▁doubt	-10.9866
▁wear	-10.9869
▁delegation	-10.9872
▁ben	-10.9873
▁ashutosh	-10.9874
▁challenges	-10.9877
▁imprisonment	-10.9878
▁mudrasphiti	-10.9879
▁poochne	-10.9879
▁naagarikta	-10.988
com	-10.988
▁membership	-10.9883
▁ways	-10.9887
▁voted	-10.9887
▁banaras	-10.9888
▁usko	-10.9888
▁saunpi	-10.9889
▁writer	-10.9891
▁fal	-10.9892
▁paul	-10.9893
▁icchhuk	-10.9898
▁isis	-10.9899
▁pich	-10.9902
▁port	-10.9904
▁captured	-10.9907
▁blasts	-10.9907
sarkaar	-10.9908
bal	-10.9909
hamen	-10.991
▁manjhi	-10.9913
▁geet	-10.9923
bollywood	-10.9926
▁courage	-10.9928
▁bechney	-10.9931
▁developed	-10.994
▁ejeeniyar	-10.9943
october	-10.9944
▁machine	-10.9945
▁isko	-10.9946
▁apharan	-10.9953
▁chaay	-10.9959
▁medium	-10.996
▁mining	-10.9961
▁broad	-10.9962
im	-10.9962
▁established	-10.9964
▁raipur	-10.9965
▁kimi	-10.9965
ho	-10.9965
▁banaate	-10.9968
▁hissedari	-10.9968
▁stuck	-10.9971
▁chhapemari	-10.9974
▁?	-10.9978
highlights	-10.9979
▁sunne	-10.998
▁ranjit	-10.998
▁items	-10.9984
century	-10.9985
▁gurugram	-10.9985
▁tied	-10.9986
▁dosti	-10.9989
▁mo	-10.9993
▁aavashyaktaa	-10.9997
▁myanmar	-10.9998
▁swayamsevak	-11
▁pe	-11.0003
▁dropped	-11.0004
▁silence	-11.001
▁prabhavi	-11.0012
▁hamalavar	-11.0013
▁likh	-11.0019
▁ghatnasthal	-11.0023
▁wishes	-11.0023
▁extremely	-11.0028
▁destroyed	-11.003
▁putin	-11.0033
▁tribal	-11.0037
▁johnson	-11.0041
▁anurag	-11.0041
▁hina	-11.0041
▁wave	-11.0042
▁younger	-11.0043
▁appropriate	-11.0048
▁armed	-11.0051
sp	-11.0052
big	-11.0054
▁kramash	-11.0055
▁grover	-11.006
▁campaigning	-11.006
▁girane	-11.0063
▁bispi	-11.0065
▁upaay	-11.0065
▁sankalp	-11.0069
▁rama	-11.0074
▁sound	-11.0075
▁ankhon	-11.0076
▁shortage	-11.0076
▁vaade	-11.0081
▁ansari	-11.0082
▁queen	-11.0083
▁letaa	-11.0084
▁aur	-11.0089
▁purana	-11.0093
▁sakasham	-11.0098
▁samvaad	-11.01
▁trephic	-11.0101
▁winter	-11.0102
▁hostel	-11.0102
▁yusuf	-11.0105
gar	-11.0112
garh	-11.0112
▁buniyadi	-11.0113
ron	-11.0114
▁sevaayen	-11.0118
▁ghotaalaa	-11.0119
▁prastaavit	-11.0128
▁bhubaneshwar	-11.0129
▁kaat	-11.013
december	-11.0134
▁vimaanon	-11.0138
▁clinton	-11.0141
▁sangrakshan	-11.0144
▁fee	-11.015
▁chawla	-11.0154
▁mohit	-11.0155
▁submit	-11.0158
▁karvaa	-11.0163
▁brigade	-11.0164
▁bahu	-11.0169
▁31,	-11.017
▁maanjhi	-11.0173
▁cards	-11.0178
▁ha	-11.0181
function	-11.0181
▁takreeban	-11.0182
▁utre	-11.0184
▁burnt	-11.0187
▁karunanidhi	-11.0192
▁buddha	-11.0196
▁swaroop	-11.0197
▁divasiy	-11.02
▁dipti	-11.02
▁regular	-11.0201
▁capacity	-11.0202
▁institution	-11.0202
▁fraud	-11.0202
▁mafia	-11.0206
os	-11.0212
▁directorate	-11.0213
▁garden	-11.0214
▁labor	-11.0219
▁buses	-11.0221
▁knowledge	-11.0222
▁naresh	-11.0224
▁andeh	-11.023
▁beauty	-11.023
▁stake	-11.0235
▁learned	-11.0235
▁besides	-11.0236
il	-11.0238
▁kathin	-11.0239
▁aadha	-11.0243
▁laash	-11.0257
▁engineer	-11.0262
▁ton	-11.0263
▁accusing	-11.0265
▁monitoring	-11.0265
▁haraakar	-11.0265
▁utpeedan	-11.0268
▁intjaam	-11.0268
▁khubasurat	-11.0268
▁tribute	-11.0272
▁congratulated	-11.0275
▁navjot	-11.0279
▁extended	-11.0279
ee	-11.0281
▁uthaate	-11.0281
▁connected	-11.0282
▁dizin	-11.0285
▁sadsyta	-11.029
▁chunki	-11.0294
▁selfie	-11.0296
per	-11.0296
▁somewhere	-11.0297
▁deni	-11.0304
▁advice	-11.0306
▁pen	-11.0316
▁naamak	-11.0321
ud	-11.0322
▁saathiyon	-11.0324
▁spending	-11.0325
▁mean	-11.0327
▁export	-11.0329
▁crop	-11.0332
▁cmd	-11.0333
▁pyaaj	-11.0334
▁sundar	-11.0338
▁paying	-11.0338
▁sin	-11.0339
▁putr	-11.0343
▁excellent	-11.0343
▁colors	-11.0346
▁tathy	-11.0349
▁vishnu	-11.0351
▁television	-11.0351
▁rakhata	-11.0351
▁opportunities	-11.0351
▁constable	-11.0352
▁tim	-11.0354
▁founder	-11.0354
▁jad	-11.0356
▁trivedi	-11.0357
hai	-11.0357
▁blow	-11.0361
▁tmc	-11.0366
▁grant	-11.0366
▁kade	-11.0374
▁crossed	-11.0374
▁bheji	-11.0375
▁sanchaalan	-11.0377
▁homes	-11.0381
▁ajinkya	-11.0384
▁sher	-11.0391
▁akhil	-11.0396
▁ratan	-11.0396
▁saf	-11.0396
▁samuhik	-11.0397
▁fielded	-11.0397
▁kavita	-11.0399
▁heat	-11.04
▁abhinay	-11.0402
nath	-11.0403
yo	-11.0407
▁bahari	-11.0407
▁vaayu	-11.041
▁differences	-11.0411
▁athwa	-11.0413
▁communication	-11.0417
▁mr	-11.0418
▁bala	-11.0421
▁agyaat	-11.0422
▁vir	-11.0423
▁azhar	-11.0423
love	-11.043
▁chikitsa	-11.043
▁maaf	-11.0434
▁aavashyak	-11.0439
▁male	-11.0441
▁bareli	-11.0441
▁plays	-11.0443
▁saikadon	-11.0444
▁wins	-11.0446
▁kamishan	-11.0449
▁pratinidhi	-11.045
▁vivaadon	-11.0451
▁participated	-11.0452
▁lived	-11.0458
▁lunch	-11.046
▁ranked	-11.0467
▁aashaa	-11.0468
aya	-11.047
▁maamuli	-11.0475
▁tufaan	-11.0477
▁hind	-11.0478
▁leone	-11.0485
▁shant	-11.0489
▁federation	-11.0489
kha	-11.0491
▁juty	-11.0493
▁physical	-11.0499
▁majaak	-11.0506
▁kilaaf	-11.0507
▁lg	-11.0509
▁nishane	-11.0514
fa	-11.0517
▁federer	-11.0519
gat	-11.0523
▁yuvakon	-11.0523
▁surendra	-11.0526
▁producer	-11.0527
▁rajd	-11.0529
▁nitiyon	-11.0529
▁kaif	-11.0532
▁adhigrahan	-11.0534
ir	-11.0534
▁feechar	-11.0537
▁daughters	-11.0539
▁leti	-11.054
▁admician	-11.0541
▁rishton	-11.0541
bhai	-11.0547
▁entertainment	-11.0548
▁mentioning	-11.0549
▁tech	-11.0549
vah	-11.0556
all	-11.0556
▁resolved	-11.0557
18	-11.0557
▁anivaary	-11.056
▁emerged	-11.0564
▁administrative	-11.0567
▁jiti	-11.0572
▁prior	-11.0574
▁attacking	-11.0579
▁interests	-11.058
▁randeep	-11.0587
▁doubles	-11.0587
▁praathamikta	-11.059
▁twenty	-11.0591
▁bataae	-11.0594
▁overcome	-11.0596
▁144	-11.0599
▁reading	-11.0602
2.	-11.0602
▁wadra	-11.0604
▁laid	-11.0607
don	-11.0607
▁remand	-11.0613
▁bache	-11.0614
▁choose	-11.0618
▁explosion	-11.0618
america	-11.0626
▁markar	-11.0627
▁reserved	-11.0628
▁statue	-11.0628
▁ie	-11.063
▁absconding	-11.063
chi	-11.0632
▁adde	-11.0636
▁bulaai	-11.0641
▁shakha	-11.0641
▁rakhkar	-11.0644
▁y	-11.0649
▁adhikaron	-11.0652
▁saamagree	-11.0656
khan	-11.0656
▁rear	-11.0665
▁gita	-11.0673
▁auction	-11.0674
▁aakraamak	-11.0674
▁nokia	-11.0676
▁saif	-11.0678
▁forum	-11.0678
▁pulavama	-11.068
▁managing	-11.0685
▁golden	-11.0687
able	-11.0689
▁muft	-11.069
▁anywhere	-11.069
▁(3.	-11.0693
▁jeenyu	-11.0694
▁08:	-11.0698
▁yogendra	-11.0699
▁kedarnath	-11.0701
▁jawaharlal	-11.0703
▁knew	-11.0703
▁sattarudh	-11.0703
▁todane	-11.0704
▁beyond	-11.0707
▁dehradun	-11.0712
▁pitch	-11.0717
▁dozen	-11.0718
▁128	-11.0718
▁steve	-11.0724
▁nilaamee	-11.0727
▁w	-11.0728
▁unknown	-11.073
ku	-11.0733
▁sthaayee	-11.0733
▁vaaki	-11.0737
▁dekhie	-11.074
▁disappointed	-11.0741
▁marketing	-11.0742
ran	-11.0745
▁karavaaya	-11.0748
▁peediton	-11.0751
▁worried	-11.0754
▁suraj	-11.0755
▁function	-11.0763
▁antargat	-11.0767
▁rashid	-11.0772
▁nic	-11.0772
▁massej	-11.0773
▁pratibha	-11.0773
▁virender	-11.0774
▁ravishankar	-11.0775
▁gul	-11.0779
▁missed	-11.078
▁pending	-11.078
▁aaengi	-11.0782
▁mukul	-11.0784
▁shekhar	-11.0784
▁aiadmk	-11.0788
▁hastkshep	-11.0791
▁priority	-11.0792
▁sambhavit	-11.0793
▁aapadaa	-11.0795
▁dark	-11.0796
▁ansaari	-11.0798
▁fighter	-11.08
▁www	-11.0804
▁certain	-11.0806
▁fdi	-11.0808
▁sanvaidhanik	-11.0811
▁stating	-11.0811
▁traditional	-11.0814
shan	-11.0814
▁suggested	-11.0818
▁battery	-11.0819
▁maangane	-11.0824
▁slam	-11.0824
▁chris	-11.0825
▁context	-11.0828
ng	-11.0829
▁mohammed	-11.0833
▁shaikh	-11.0836
▁trapped	-11.0837
’’	-11.0838
▁prayaason	-11.0839
▁glass	-11.084
▁myself	-11.0844
▁niraash	-11.0846
▁ricard	-11.0848
▁07:	-11.085
▁purchase	-11.085
▁aas	-11.0851
▁artist	-11.0855
▁dec	-11.0856
▁shradhanjali	-11.0856
▁50,000	-11.0858
▁treated	-11.0858
▁kholane	-11.086
▁samvedi	-11.0861
▁gajiabad	-11.0863
▁camel	-11.0863
▁sisodiya	-11.0865
▁acre	-11.0869
▁gb	-11.0871
▁jangal	-11.0872
ment	-11.0873
▁shuruuaat	-11.0876
▁criminals	-11.0878
▁pakade	-11.0879
▁khudakushi	-11.088
▁thailand	-11.089
▁jodne	-11.0894
▁transferred	-11.0895
▁winner	-11.0904
▁aid	-11.0913
▁biimaar	-11.0915
▁cleanliness	-11.0919
▁joda	-11.092
▁haraa	-11.0925
mere	-11.0928
▁initially	-11.0929
▁thos	-11.0931
▁dharti	-11.0931
▁priya	-11.0939
▁commonwealth	-11.0949
▁najadik	-11.0951
▁cag	-11.0951
▁emotional	-11.0953
▁aatank	-11.0958
▁lanbaa	-11.0958
▁09:	-11.0959
▁dhai	-11.0968
▁jamaat	-11.0968
midst	-11.0969
▁lay	-11.097
ism	-11.0971
esh	-11.0976
▁800	-11.0978
▁contribution	-11.098
▁departments	-11.0983
▁khat	-11.0987
▁shocking	-11.0988
ic	-11.0994
▁dushkarm	-11.0995
▁influence	-11.0998
▁safed	-11.1001
▁indo	-11.1005
▁jod	-11.1008
▁yun	-11.1008
▁interrogation	-11.1012
▁pdta	-11.1012
▁reforms	-11.102
▁behaal	-11.102
▁fresh	-11.1024
nt	-11.1024
▁romantic	-11.1025
▁russian	-11.1026
▁floods	-11.1027
▁discount	-11.1028
▁dangon	-11.1038
▁coast	-11.1038
▁rahamaan	-11.1044
▁roles	-11.1045
▁sanskaar	-11.1046
▁swayan	-11.1046
▁rishta	-11.1052
▁premium	-11.1054
▁ijapha	-11.1054
▁defeating	-11.106
▁gurgaon	-11.106
▁bed	-11.106
ter	-11.1063
▁nair	-11.1063
▁fought	-11.1066
▁sting	-11.1066
▁ingine	-11.1067
50	-11.1069
enge	-11.1071
▁saude	-11.1075
▁bajaj	-11.1079
▁niklaa	-11.1082
▁options	-11.1084
▁ekal	-11.1089
match	-11.1089
▁rti	-11.1095
▁republican	-11.1096
▁duutavas	-11.1097
out	-11.1098
▁minority	-11.11
▁adopted	-11.1101
▁daan	-11.1106
bo	-11.1109
ball	-11.111
▁division	-11.1115
▁kris	-11.1116
▁arrives	-11.1117
▁goliyaan	-11.1117
▁everywhere	-11.1121
▁barabari	-11.1122
▁ankit	-11.1122
dhire	-11.1129
▁advisor	-11.1133
▁dawa	-11.1135
▁bari	-11.1136
▁allies	-11.1137
▁withdrawal	-11.1138
▁condemned	-11.1142
▁appearing	-11.1144
▁aggarwal	-11.1144
▁clash	-11.1144
▁lagaana	-11.1146
▁mixed	-11.1147
▁cab	-11.115
▁aggressive	-11.1152
▁sheila	-11.1154
▁schedule	-11.1155
▁siarpief	-11.1158
▁machaa	-11.116
▁chup	-11.1162
▁sheikh	-11.1165
▁iviem	-11.1169
1.	-11.1171
naa	-11.1174
▁chathe	-11.1174
▁comedy	-11.1176
▁rrb	-11.1177
ist	-11.118
▁vastav	-11.1181
▁taxi	-11.1181
▁osama	-11.1182
▁maari	-11.1184
▁version	-11.1191
▁darjan	-11.1192
▁ud	-11.1192
▁aspataalon	-11.1194
▁michael	-11.1195
▁scenes	-11.1196
▁landing	-11.1203
▁alias	-11.1204
▁anuraag	-11.1214
▁prisoners	-11.1215
▁samvedansheel	-11.1219
▁gehlot	-11.1219
▁isane	-11.122
▁saans	-11.1223
▁increases	-11.1225
▁talaashi	-11.1226
▁dakshini	-11.1228
▁kumari	-11.1231
▁gadiyon	-11.1232
president	-11.1236
▁chapa	-11.1238
▁fort	-11.1241
▁singles	-11.1244
▁upree	-11.1246
ara	-11.1247
▁youtube	-11.1256
▁nakadi	-11.1258
para	-11.126
▁mahanideshak	-11.1266
▁slow	-11.1274
▁lab	-11.1278
tnat	-11.1287
▁saharanpur	-11.1291
av	-11.1291
inch	-11.1294
▁bullet	-11.1295
▁prabandh	-11.1297
▁z	-11.1298
adslo	-11.1302
kuch	-11.1302
▁parde	-11.1302
ivevideo	-11.1304
▁doshiyon	-11.1307
▁jahnavi	-11.1311
▁uncle	-11.1312
▁shivaji	-11.1313
▁mosque	-11.1313
▁guwahati	-11.1313
from	-11.1313
▁damaged	-11.1318
▁dawood	-11.1321
▁hall	-11.1322
▁prasaaran	-11.1325
▁maansik	-11.1332
▁jayant	-11.1333
▁original	-11.1333
▁aahvaan	-11.1334
▁ekajute	-11.1335
▁simple	-11.1339
aka	-11.1339
▁lekh	-11.1341
▁disple	-11.1345
▁elder	-11.135
▁understanding	-11.1351
▁german	-11.1354
▁tourists	-11.1355
▁bachapan	-11.1356
▁madhav	-11.1356
▁kheti	-11.1357
▁sampann	-11.1358
▁fill	-11.1361
▁silsilaa	-11.1364
▁naye	-11.1373
▁krime	-11.1373
▁kaaryon	-11.1373
dev	-11.1376
▁secular	-11.1377
▁professional	-11.1377
▁sebi	-11.1381
▁bronze	-11.1381
▁shift	-11.1385
▁zone	-11.1387
▁rishwat	-11.139
▁2019.	-11.1394
▁charged	-11.1396
▁sibal	-11.14
▁poonch	-11.1403
▁sisters	-11.1404
▁colleagues	-11.1415
▁partiyaan	-11.1418
▁kadaa	-11.1418
▁samvaadadaata	-11.1421
▁clarified	-11.1425
▁nobel	-11.1425
▁1980	-11.1426
▁naksali	-11.1429
▁giri	-11.143
gauratlab	-11.143
▁realty	-11.143
▁assistance	-11.1431
▁khaaton	-11.1432
▁hiton	-11.1435
less	-11.1435
▁2013,	-11.1437
▁2015,	-11.1439
▁speculation	-11.144
▁childhood	-11.1441
▁strengthened	-11.1445
▁material	-11.1454
▁laptop	-11.1456
▁baandh	-11.1457
▁kishore	-11.146
▁130	-11.1461
▁ill	-11.1466
▁idhar	-11.1468
▁badmaash	-11.1471
pura	-11.1471
maharashtra	-11.1472
▁kahkar	-11.1472
▁hd	-11.1474
▁dilaai	-11.1479
▁user	-11.1484
16	-11.1485
▁cond	-11.1489
teen	-11.1491
▁protesting	-11.1492
▁vaikency	-11.1493
▁deposited	-11.1493
▁expressing	-11.1494
▁earnings	-11.1495
▁describing	-11.1497
▁vacant	-11.1502
ari	-11.1505
pak	-11.151
▁yugal	-11.1512
▁vakeelon	-11.1512
▁pratinidhitiv	-11.1514
▁badaulat	-11.1517
▁agricultural	-11.1519
▁sunakar	-11.1524
▁shirkat	-11.1525
han	-11.1526
▁pathar	-11.1528
▁saatven	-11.1529
▁rohan	-11.1531
▁aarti	-11.1533
▁mukti	-11.1535
▁iti	-11.1537
▁rajat	-11.1541
▁aamantrit	-11.1542
▁ips	-11.1544
24	-11.1546
▁phul	-11.155
▁mrit	-11.1551
▁bandh	-11.1552
▁riders	-11.1554
▁bajaae	-11.1559
▁scientists	-11.156
▁burning	-11.1561
▁jajon	-11.1561
▁raided	-11.1566
▁profile	-11.1566
▁harassment	-11.157
▁02:	-11.1573
▁khulkar	-11.1576
▁phenk	-11.1577
▁classes	-11.1581
▁spreading	-11.1581
▁harakat	-11.1582
▁brake	-11.1589
▁pramotion	-11.1591
▁vi	-11.1592
▁expectations	-11.1593
▁healthy	-11.1594
▁rocket	-11.1596
▁challenging	-11.1596
▁singing	-11.1599
▁maton	-11.1601
▁searching	-11.1603
▁vistrut	-11.1606
▁lahar	-11.161
▁sansthaapak	-11.161
▁choda	-11.161
▁ireland	-11.1615
▁variyata	-11.1619
▁ravichandran	-11.162
▁surakshabalon	-11.1624
▁sanbhaalane	-11.1626
ju	-11.1627
▁tarun	-11.163
shi	-11.1632
▁soldier	-11.1635
ation	-11.1638
▁karwaane	-11.1641
▁visheshgy	-11.1642
▁margin	-11.1642
▁overall	-11.1643
▁rajkumaar	-11.1645
▁newspapers	-11.1648
▁manifesto	-11.1648
▁memorial	-11.1648
▁mouth	-11.165
▁unity	-11.1653
▁manoranjan	-11.1653
▁employee	-11.1653
▁maanane	-11.1654
▁bataanaa	-11.1655
▁pariyojnaon	-11.1658
▁apologize	-11.166
▁yourself	-11.166
▁jitani	-11.1663
▁ordinance	-11.1664
▁vihar	-11.1664
▁gauri	-11.1667
▁jataate	-11.167
▁avatar	-11.1671
▁escape	-11.1672
▁improved	-11.1673
▁baith	-11.1675
bhi	-11.1675
▁vichaardhaara	-11.1676
▁vifal	-11.1679
kam	-11.168
▁ilevan	-11.1682
▁shopping	-11.1686
▁apmaan	-11.1688
▁restaurant	-11.1688
ling	-11.1692
▁teach	-11.1693
▁design	-11.1695
▁05:	-11.1697
▁yujar	-11.1697
iske	-11.1699
▁prison	-11.1701
▁criticism	-11.1702
▁mishael	-11.1703
▁vacancy	-11.1707
▁nayak	-11.1708
▁displeasure	-11.1708
22	-11.1709
▁visheshgyon	-11.1711
▁anek	-11.1713
▁nik	-11.1717
▁responded	-11.1718
▁editor	-11.1718
▁paryaton	-11.1721
▁murti	-11.1724
▁boj	-11.1733
▁khyaal	-11.1734
▁flat	-11.1735
et	-11.174
▁sibbal	-11.1742
▁filing	-11.1742
yan	-11.1742
▁football	-11.1745
▁mehbooba	-11.1745
▁celebrating	-11.1747
▁claiming	-11.1748
▁sahyogiyon	-11.175
▁repeatedly	-11.1753
ban	-11.1754
▁yash	-11.1756
▁faces	-11.1758
▁daali	-11.1758
▁pujara	-11.1759
▁1:	-11.176
▁engine	-11.1761
▁parking	-11.1762
▁martyred	-11.1765
▁rajyamantri	-11.1767
▁04:	-11.177
shah	-11.1773
▁instructed	-11.1774
▁jujh	-11.1777
▁referred	-11.1778
▁xiaomi	-11.1779
▁eid	-11.1781
▁karmiyon	-11.1782
▁badhata	-11.1784
▁reporter	-11.1787
▁kargil	-11.179
▁2016,	-11.1791
ty	-11.1792
▁mem	-11.1793
▁khudara	-11.1798
▁utsahit	-11.1801
▁aupchaarik	-11.1804
haa	-11.1806
▁morche	-11.1808
▁helping	-11.1812
▁kendron	-11.1818
▁processor	-11.182
▁garmi	-11.1822
▁diseases	-11.1822
▁suchit	-11.1825
▁rampur	-11.1828
▁munde	-11.1831
▁divided	-11.1831
▁sbi	-11.1832
▁prize	-11.1832
▁talent	-11.1833
▁aadhi	-11.1834
▁prashasnic	-11.1834
▁siyasat	-11.1835
▁sauda	-11.1835
▁jindal	-11.1837
▁somnath	-11.184
▁badhanaa	-11.1846
▁gahalot	-11.1855
▁2:	-11.1855
▁aadhunik	-11.1857
▁troops	-11.186
▁relationships	-11.1861
▁hunger	-11.1861
▁add	-11.1862
▁daanv	-11.1864
▁kharida	-11.1865
▁fat	-11.1869
▁ardhashatak	-11.1871
▁alpsankhyak	-11.1874
▁karana	-11.1878
▁owaisi	-11.1881
▁congratulations	-11.1882
▁raji	-11.1887
▁marsh	-11.1887
▁basu	-11.1888
▁inbox	-11.1892
▁fain	-11.1894
▁sardar	-11.1895
26	-11.1901
▁connect	-11.1905
▁deficit	-11.1909
▁enjoy	-11.1912
isi	-11.1919
▁las	-11.1932
▁rallies	-11.1943
▁secondary	-11.1945
▁postponed	-11.1951
▁keshav	-11.1952
▁provisions	-11.1953
▁zamin	-11.1954
▁shikast	-11.1957
▁malinga	-11.1957
▁captaincy	-11.1959
ish	-11.1959
▁reating	-11.1959
▁enie	-11.1973
▁embassy	-11.1977
▁ladaa	-11.1979
▁seem	-11.1981
▁burden	-11.1982
▁popularity	-11.1983
▁dreams	-11.1984
▁hema	-11.1985
▁jidipi	-11.1985
▁recommendations	-11.1995
▁shrunkhlaa	-11.1995
▁universities	-11.1999
▁vijender	-11.2003
karan	-11.2004
▁06:	-11.2006
▁kamalnath	-11.2011
▁chemical	-11.2012
▁aaraam	-11.2013
▁baraak	-11.2013
▁sultan	-11.2014
▁abraham	-11.2016
▁announce	-11.2021
▁tree	-11.2022
▁700	-11.2024
▁airways	-11.203
ity	-11.2032
▁dhamaake	-11.2032
▁threatening	-11.2032
▁solar	-11.2033
▁nikat	-11.2036
▁neuyork	-11.2037
▁collected	-11.2038
jit	-11.2039
▁boli	-11.204
▁usually	-11.204
▁chin	-11.204
▁traveling	-11.204
▁rafale	-11.2041
▁meghalaya	-11.2041
▁celebrities	-11.2043
▁neighboring	-11.2046
▁eighth	-11.2048
▁detail	-11.2062
▁violent	-11.2063
▁2012,	-11.207
▁wide	-11.207
▁symbol	-11.2076
▁medicine	-11.2076
▁mahal	-11.2081
they	-11.2081
▁improvement	-11.2085
what	-11.2088
▁surgical	-11.2088
▁northern	-11.2089
▁shortly	-11.2095
▁arth	-11.2097
▁sehat	-11.2101
▁repo	-11.2106
▁exposed	-11.2107
▁chintit	-11.2108
yu	-11.2108
▁oonchi	-11.2109
za	-11.2109
▁saunpa	-11.2111
▁posters	-11.2114
▁akalan	-11.2115
▁drop	-11.2115
▁wasim	-11.2116
▁ishwar	-11.2117
taur	-11.2118
▁andaja	-11.2118
▁shahabuddin	-11.2118
▁saraahna	-11.2119
▁sectoron	-11.2119
▁expert	-11.2124
▁fisad	-11.2126
▁urdu	-11.2126
▁shesh	-11.2128
▁boat	-11.2131
▁transactions	-11.2132
▁nominated	-11.2137
▁addressed	-11.2143
▁rabindra	-11.2147
▁selary	-11.2147
▁sanskaran	-11.2149
▁samudr	-11.2149
27	-11.2149
▁europea	-11.2149
▁skill	-11.2152
january	-11.2154
mail	-11.2156
▁ideology	-11.2157
▁detailed	-11.2159
▁soil	-11.2164
▁bhagidaari	-11.2167
▁chakkar	-11.2168
▁dot	-11.2171
are	-11.2172
▁faridabad	-11.2181
▁replaced	-11.2184
kal	-11.2187
▁pollard	-11.2189
▁nakaaratmak	-11.2194
▁expect	-11.2199
▁kamedi	-11.2199
▁collejon	-11.2201
▁worldwide	-11.2209
▁enforcement	-11.2209
23	-11.2212
▁matters	-11.2213
▁rankings	-11.2213
kh	-11.2214
▁ladkiyaan	-11.2219
▁edition	-11.2219
▁bayanon	-11.222
▁walking	-11.2222
▁aadhe	-11.2223
▁gudgaanv	-11.2225
▁thomas	-11.2227
▁kaaryakramon	-11.2228
mar	-11.2229
▁kota	-11.2229
▁shrey	-11.2231
▁amir	-11.2232
▁holiday	-11.2233
▁raje	-11.2234
▁deaths	-11.2238
▁ponting	-11.224
▁barack	-11.2241
▁citing	-11.2244
▁aapasi	-11.2244
▁rath	-11.2247
▁concerns	-11.225
▁distribution	-11.2251
▁kendrit	-11.2251
▁harsh	-11.2253
▁sadhate	-11.2255
▁barbaad	-11.2261
▁bhaskar	-11.2262
▁1997	-11.2265
▁keeps	-11.2266
▁tat	-11.2271
29	-11.2274
▁vyaktiyon	-11.2275
▁pride	-11.2275
▁develop	-11.2276
▁chook	-11.228
▁contestant	-11.2282
▁prithvi	-11.2286
chaar	-11.2289
▁mira	-11.2289
▁siddiqui	-11.2292
▁injuries	-11.2292
▁myne	-11.2293
▁shoshan	-11.23
▁nadal	-11.23
▁animals	-11.23
▁sikkim	-11.2301
▁strategic	-11.2301
▁pakadaney	-11.2301
▁vihaar	-11.2301
bsp	-11.2303
▁portal	-11.2303
▁significant	-11.2305
▁surprise	-11.2309
▁kalakaaron	-11.231
bataa	-11.2312
▁maaikel	-11.2313
▁kanda	-11.2315
▁structure	-11.2315
▁nite	-11.2315
▁110	-11.2319
▁ullekh	-11.2319
▁rakhti	-11.2322
▁deen	-11.2323
▁ganges	-11.2325
▁sarkar	-11.2326
▁recognized	-11.2327
▁laaparvaahee	-11.233
▁kaisaa	-11.2331
▁aglaa	-11.2333
▁5-	-11.2334
▁khanan	-11.2336
▁mike	-11.2338
▁offices	-11.2345
aar	-11.2347
▁aapas	-11.2349
▁indicated	-11.2349
purv	-11.2351
▁noting	-11.2355
but	-11.2356
▁solve	-11.2357
▁saheb	-11.2357
▁adhyadesh	-11.236
▁taal	-11.236
▁vaastavik	-11.2361
▁serve	-11.2363
▁swamy	-11.2363
▁persons	-11.2366
▁gaay	-11.237
▁difficulties	-11.2371
▁otherwise	-11.2372
▁trainon	-11.2372
▁shock	-11.2375
▁scope	-11.2378
▁sadar	-11.238
▁aaye	-11.2381
▁sanyas	-11.2385
▁hidden	-11.2389
▁camps	-11.2389
▁gulam	-11.239
▁iaiti	-11.2393
▁gavaah	-11.2394
pichley	-11.2394
▁pooja	-11.2396
▁1992	-11.2396
ies	-11.2398
▁machines	-11.2398
▁operating	-11.24
▁equipment	-11.2403
▁footbal	-11.2404
▁shaareerik	-11.2404
▁educational	-11.2406
▁chaturvedi	-11.241
▁consteble	-11.2427
▁planned	-11.2427
▁mela	-11.2431
▁uda	-11.2433
▁gusse	-11.2434
▁karnal	-11.2434
▁contributed	-11.2435
aj	-11.2437
▁ar	-11.2438
▁governance	-11.2443
▁ajmal	-11.2443
▁blike	-11.2444
▁shimla	-11.2446
▁sudhir	-11.2451
▁flying	-11.2457
▁sessions	-11.2458
▁morgan	-11.2462
▁lambit	-11.2463
▁kan	-11.2465
▁goals	-11.247
▁pratiyogita	-11.2473
▁kursi	-11.2475
▁interim	-11.2481
▁sapane	-11.2482
ol	-11.2485
▁select	-11.2487
▁nibhaane	-11.2488
ting	-11.2489
▁ring	-11.2491
▁giraaya	-11.2494
wala	-11.2498
▁hoped	-11.2499
▁gadabadi	-11.2502
▁vyapaaree	-11.2503
▁causing	-11.2504
▁tantra	-11.2506
▁arabia	-11.2506
▁350	-11.2508
▁promoting	-11.2508
ghar	-11.2509
▁medals	-11.251
▁jewelery	-11.251
like	-11.2511
▁pragya	-11.2512
▁messages	-11.2515
▁chanda	-11.2515
▁rojaanaa	-11.2518
▁flash	-11.252
▁2'	-11.252
▁manufacturing	-11.2523
▁biguef	-11.2525
▁banaaye	-11.2525
▁haridwar	-11.2527
▁ladakon	-11.2529
▁aantarik	-11.2531
▁premises	-11.2534
▁percentage	-11.2535
▁paristhitiyon	-11.2536
▁vaigyanik	-11.2537
▁lu	-11.2543
▁applied	-11.2543
▁ishant	-11.2545
▁himmat	-11.2547
▁jagan	-11.2548
▁bribe	-11.2552
▁sire	-11.2552
▁rakhenge	-11.2552
▁madan	-11.2555
▁struggling	-11.2558
▁pujaara	-11.2558
▁marij	-11.256
▁championship	-11.2563
thi	-11.2566
jai	-11.2572
▁chandrashekhar	-11.2572
▁praathmik	-11.2576
▁nideshaalay	-11.2576
▁garh	-11.2577
▁kachche	-11.2578
▁2,000	-11.2578
▁acquisition	-11.258
▁2-	-11.2583
id	-11.2585
▁uthaanaa	-11.2588
▁racket	-11.2594
▁hong	-11.2602
▁paaydaan	-11.2611
▁ajmer	-11.2621
▁releasing	-11.2627
▁conflict	-11.263
▁para	-11.2641
▁padati	-11.2643
▁yogya	-11.2644
▁returns	-11.2648
▁upmukhyamantri	-11.2648
▁flu	-11.2654
ex	-11.2655
▁bydaree	-11.2657
▁musalmaan	-11.2658
▁diet	-11.266
----------------	-11.2664
▁likhane	-11.2664
▁flite	-11.2668
▁applications	-11.2671
▁utana	-11.2672
▁fuel	-11.2673
▁mahabuuba	-11.2675
▁opposite	-11.2676
▁fastest	-11.2677
▁quickly	-11.2684
tar	-11.2685
▁failaane	-11.2686
▁stones	-11.2687
gan	-11.269
▁judgment	-11.2694
▁suvidhaayen	-11.2694
▁kiijie	-11.2698
▁shivi	-11.2699
▁literature	-11.2701
nu	-11.2702
▁kochi	-11.2704
▁hu	-11.2704
▁commerce	-11.2706
▁directors	-11.2709
▁lakshmana	-11.271
▁dhaanche	-11.2716
shubhakamanaayen	-11.2719
▁alleges	-11.2723
level	-11.2724
▁presenting	-11.2724
▁knight	-11.2724
▁coaches	-11.273
▁performing	-11.2731
▁earn	-11.2734
▁severe	-11.2739
▁sardaar	-11.274
▁mention	-11.2744
▁levels	-11.2749
▁utsaah	-11.2749
▁laae	-11.275
▁prabhas	-11.2754
▁utpaadon	-11.2757
▁disputed	-11.2759
▁rampal	-11.2773
▁1991	-11.2775
▁rushed	-11.2775
▁mental	-11.278
▁darshak	-11.2785
▁particular	-11.2787
▁kilogram	-11.2787
▁20,000	-11.2787
▁begins	-11.2789
▁pot	-11.2789
▁resort	-11.2792
▁plot	-11.2794
▁served	-11.2797
▁jethmalani	-11.2804
watch	-11.2808
▁lasted	-11.2808
▁kaal	-11.2809
▁politicians	-11.2811
?'	-11.2813
▁martin	-11.2815
▁talab	-11.2815
▁naik	-11.2816
56	-11.2819
▁oonchai	-11.282
▁kaidiyon	-11.2821
▁rier	-11.2822
▁parthiv	-11.2824
▁phaayde	-11.2825
ndtv	-11.2825
▁kor	-11.2828
▁gum	-11.2828
▁dhar	-11.2833
▁sha	-11.2834
▁chadha	-11.2835
▁absence	-11.2836
▁patrika	-11.2842
delhi	-11.2843
▁recording	-11.2853
▁sambhaal	-11.2853
▁desi	-11.2855
▁maange	-11.2857
▁aparaadhiyon	-11.2858
▁soobe	-11.2861
elections	-11.2862
▁kingfisher	-11.2865
▁pink	-11.2867
▁mejabaan	-11.2867
▁hill	-11.287
▁vibhaagon	-11.287
▁extent	-11.2874
▁withdrawn	-11.2874
off	-11.2875
▁artists	-11.288
▁mantar	-11.2881
▁rajkot	-11.2885
▁core	-11.2888
▁tripathi	-11.2891
▁jabaran	-11.2897
▁praathmiki	-11.2908
▁extra	-11.291
40	-11.2912
▁tainaati	-11.2914
▁swiss	-11.2914
▁bhutan	-11.2917
▁ovaisi	-11.2918
▁dancing	-11.292
▁perera	-11.2921
new	-11.2921
▁jaananaa	-11.2922
national	-11.2922
▁bai	-11.2926
▁arora	-11.2926
▁3:	-11.293
▁wi	-11.293
▁cricketers	-11.2934
now	-11.2935
▁televijan	-11.2942
▁skim	-11.2943
happy	-11.2946
▁luck	-11.2949
▁banataa	-11.2951
▁robbery	-11.2954
▁thanked	-11.2954
▁pump	-11.2956
▁ending	-11.2961
▁franchise	-11.2963
▁govt	-11.2963
▁kahe	-11.2964
▁raids	-11.2964
▁nasa	-11.2968
▁utarane	-11.2968
▁prayers	-11.2973
▁shasit	-11.2974
▁dand	-11.2975
▁antarim	-11.2975
▁unfortunate	-11.298
▁bel	-11.2983
▁takaraav	-11.2986
▁mayor	-11.2986
▁chuaa	-11.2988
-4	-11.2992
70	-11.2997
▁paata	-11.2999
▁threw	-11.3001
▁chargeshit	-11.3004
▁chaukaa	-11.3004
▁bid	-11.3005
▁madras	-11.3009
▁govind	-11.301
▁shame	-11.3011
▁mrityu	-11.3014
▁padukon	-11.3015
▁vimaanan	-11.3016
▁sharan	-11.3018
▁gut	-11.302
▁saini	-11.3025
▁jamaane	-11.3029
▁potential	-11.303
▁anuroop	-11.303
▁adivasee	-11.3031
▁bahaane	-11.3033
▁5000	-11.3035
style	-11.3038
▁euro	-11.3038
▁pratik	-11.304
▁chauthaa	-11.3041
▁hanged	-11.3043
po	-11.3043
▁bharpoor	-11.3044
▁utari	-11.3044
kan	-11.3047
▁surkhiyon	-11.3049
ay	-11.3051
▁panic	-11.3051
▁baitha	-11.3052
▁chahal	-11.3053
▁jun	-11.3054
▁retirement	-11.3057
▁mexico	-11.3058
▁daaud	-11.3059
february	-11.3062
▁punished	-11.3066
▁matbhed	-11.3066
▁ajahar	-11.3073
▁chandrababu	-11.3074
▁witnesses	-11.3075
▁gym	-11.3076
sc	-11.3077
▁shahi	-11.3083
▁metal	-11.3084
▁5,000	-11.3089
hamaare	-11.3089
▁hataaya	-11.3094
▁access	-11.3096
▁firm	-11.3099
▁vicky	-11.3099
▁headlines	-11.3106
▁pramod	-11.3108
um	-11.3108
▁nagaland	-11.3108
▁banegaa	-11.3108
▁rihaai	-11.311
▁aapse	-11.3115
▁najeeb	-11.3115
▁serena	-11.3115
▁singhvi	-11.3116
▁jp	-11.3117
▁gwalior	-11.3117
▁monetary	-11.3119
▁jong	-11.3122
▁diwaar	-11.3122
▁witness	-11.3122
ck	-11.3124
▁lucky	-11.3131
▁entering	-11.3135
▁approached	-11.3136
▁khul	-11.3137
▁funding	-11.3138
ef	-11.314
▁jokhim	-11.3141
▁ghatnakram	-11.3144
▁ghaataa	-11.3144
mal	-11.3146
▁vishwas	-11.3151
▁fashion	-11.3152
▁pragna	-11.3153
▁rohtak	-11.3156
▁taught	-11.3158
90	-11.3159
▁patari	-11.3161
▁1989	-11.3161
▁superhit	-11.3162
▁scandal	-11.3162
▁fallen	-11.3163
08	-11.3163
▁ms	-11.3165
final	-11.3165
▁fields	-11.3167
▁acid	-11.3168
▁ghulam	-11.3171
▁buildings	-11.3174
▁amazon	-11.3174
▁baithkar	-11.3177
land	-11.318
▁magic	-11.3184
▁peedi	-11.3185
▁iees	-11.3189
▁bills	-11.3191
▁mir	-11.3192
▁sanju	-11.3192
▁teaching	-11.3192
▁zarur	-11.3194
▁lata	-11.3195
▁recovery	-11.3195
▁tells	-11.3197
48	-11.32
▁transfar	-11.3202
▁purvottar	-11.3203
▁spirit	-11.3204
▁sargical	-11.321
▁bs	-11.3224
▁mittal	-11.3224
▁dastavejon	-11.3225
▁ghus	-11.3225
ant	-11.3226
▁files	-11.3229
▁fifa	-11.3229
▁nashe	-11.323
▁accompanied	-11.3232
▁hinduon	-11.3233
▁preparation	-11.3236
▁document	-11.3236
she	-11.3237
▁rathore	-11.3238
▁coment	-11.3239
▁attackers	-11.3239
▁kalpana	-11.3239
▁dog	-11.3241
▁syed	-11.3242
▁rice	-11.3243
▁expenses	-11.3243
▁flights	-11.3245
▁harm	-11.3249
▁medicines	-11.3249
▁pratibandhit	-11.3251
▁fulfilled	-11.3252
▁neend	-11.3253
▁raaje	-11.3255
▁ga	-11.3255
▁muzaffarnagar	-11.3256
▁coffee	-11.3257
▁offering	-11.3257
uttar	-11.326
▁shauchalay	-11.3262
▁saraswati	-11.3263
▁prerana	-11.3263
▁vichaaron	-11.3264
▁theft	-11.3267
▁staying	-11.3269
isse	-11.3271
▁verient	-11.3272
▁pdp	-11.3273
▁continuous	-11.3277
▁artiai	-11.3278
▁legi	-11.3279
▁virus	-11.3279
▁jud	-11.3284
49	-11.3285
▁gilaani	-11.3285
▁laayak	-11.3285
▁acharya	-11.3287
▁congressi	-11.3287
▁mitchell	-11.3287
▁patient	-11.3288
▁4:	-11.3289
▁diabetes	-11.3291
▁bastar	-11.3291
after	-11.3291
▁soft	-11.3292
tan	-11.3293
▁elements	-11.3293
▁paanaa	-11.3295
▁padmavati	-11.3296
▁expenditure	-11.3297
▁nasht	-11.3298
▁george	-11.33
▁jahaaj	-11.33
▁subsidy	-11.3303
▁searched	-11.3313
▁vittamantri	-11.3316
▁adjourned	-11.3317
anand	-11.3317
▁gurmeet	-11.3317
▁drought	-11.3318
▁rating	-11.3321
▁rumors	-11.3324
▁fray	-11.3327
▁chuppi	-11.3331
abad	-11.3331
▁malaika	-11.3332
▁activity	-11.3335
pratinidhimandal	-11.3336
▁josh	-11.3336
▁elderly	-11.3337
dy	-11.3339
▁raid	-11.3339
▁hurriyat	-11.3341
▁hinsak	-11.3343
▁pmo	-11.3345
▁proper	-11.3345
▁muaavja	-11.3348
▁completion	-11.3352
▁abbas	-11.3359
▁videshon	-11.3359
▁manjuur	-11.3361
▁concrete	-11.3363
ig	-11.3365
▁swasth	-11.3366
▁rajkumar	-11.3366
ut	-11.3366
ce	-11.3368
▁haj	-11.3368
▁samprag	-11.3373
daar	-11.3374
▁swati	-11.3375
▁federal	-11.3376
▁reduction	-11.3378
▁ech	-11.3381
piem	-11.3382
▁menon	-11.3383
▁dargah	-11.3384
▁characters	-11.3386
▁jawans	-11.339
dil	-11.3391
pra	-11.3394
▁korean	-11.3395
▁audit	-11.3399
▁cultural	-11.34
▁arts	-11.3401
▁aryan	-11.3402
▁laxman	-11.3406
▁ship	-11.3407
▁brain	-11.341
▁satya	-11.3412
▁maruti	-11.3414
▁nidhi	-11.3414
▁mohali	-11.3414
▁tweets	-11.3416
▁dilaayaa	-11.342
▁maal	-11.342
long	-11.3421
▁chapet	-11.3423
▁evm	-11.3426
▁guidelines	-11.3426
▁kismat	-11.3428
▁hearts	-11.3428
▁haalia	-11.343
▁syrian	-11.3434
▁corrupt	-11.3436
▁occupied	-11.344
▁baj	-11.3442
▁sambodhan	-11.3444
▁christmas	-11.3444
▁circular	-11.3448
▁cheap	-11.3448
kumar	-11.3451
▁105	-11.3452
▁undergoing	-11.3453
▁zindagi	-11.3457
▁dikhne	-11.3458
▁bhaagane	-11.3458
▁bajkar	-11.3459
▁03:	-11.3459
▁cheteshwar	-11.346
▁bujurg	-11.3462
▁vidhaan	-11.3467
▁aaie	-11.3468
▁140	-11.3469
▁royals	-11.3471
▁yuj	-11.3472
▁clin	-11.3472
▁leaves	-11.3472
▁1971	-11.348
▁scared	-11.348
▁suggestions	-11.3484
▁ally	-11.3486
▁aayu	-11.3486
▁cyber	-11.3489
▁upachaar	-11.3494
kabhi	-11.3496
▁gyaan	-11.3496
team	-11.3501
▁ipc	-11.3506
▁diplomatic	-11.351
▁sitharaman	-11.3512
▁jairam	-11.3513
▁bundelkhand	-11.3514
▁enthusiasm	-11.3514
▁involvement	-11.3514
▁waar	-11.3516
▁sur	-11.3516
▁corridor	-11.3517
▁svachh	-11.3517
▁epadiai	-11.3522
mat	-11.3522
▁israeli	-11.3524
▁debyue	-11.3524
▁weapon	-11.3525
▁apradhi	-11.3526
▁housing	-11.3528
nse	-11.3528
▁telephone	-11.3535
▁shukriya	-11.3536
▁bah	-11.3547
▁respond	-11.3551
▁recommended	-11.3555
rat	-11.3556
▁satisfied	-11.3559
▁fouran	-11.356
▁violated	-11.3561
▁closely	-11.3568
▁ujagar	-11.3569
▁papa	-11.3569
▁honest	-11.3569
▁hakeekat	-11.3569
▁hate	-11.3572
▁khalid	-11.3572
▁lite	-11.3572
▁meaning	-11.3577
▁paal	-11.3579
▁lift	-11.3583
▁cleaning	-11.3585
▁yatayaat	-11.3586
▁bech	-11.3588
kon	-11.3588
▁jaayegaa	-11.3589
▁seed	-11.3591
taran	-11.3593
▁divorce	-11.3594
▁1977	-11.3599
▁tik	-11.3602
▁darwaja	-11.3603
▁giroh	-11.3603
▁funs	-11.3607
▁pappu	-11.3607
▁sibar	-11.3611
hal	-11.3613
▁khet	-11.3613
▁hangaame	-11.3616
▁uplabdhi	-11.3619
aninewsup	-11.3623
▁aspect	-11.3625
puri	-11.3626
with	-11.3629
▁2017,	-11.363
▁dushman	-11.3634
▁upasthit	-11.3638
▁fame	-11.3642
▁culprits	-11.3642
▁peaceful	-11.3645
▁nobody	-11.3645
▁beneficial	-11.3646
▁pard	-11.3647
▁chandan	-11.3652
▁applicable	-11.3652
▁advertisement	-11.3667
▁tithi	-11.3671
▁villiers	-11.3672
▁saint	-11.3673
▁tower	-11.3673
▁uparajyapal	-11.3674
▁procesar	-11.3676
▁dakhal	-11.3679
tri	-11.3681
▁durupyog	-11.3683
▁troubled	-11.3683
▁nikaali	-11.3684
▁deraa	-11.3685
▁07.	-11.3686
▁hillary	-11.3687
uri	-11.3689
▁rainfall	-11.3689
▁monitor	-11.3689
▁consumption	-11.3693
▁kiraaya	-11.3695
▁pravartan	-11.3695
▁stuart	-11.3698
▁fierce	-11.3698
das	-11.3699
www	-11.3703
▁bullets	-11.3707
▁signal	-11.3709
▁kirti	-11.372
▁bhagalpur	-11.3721
eey	-11.373
▁nirbhaya	-11.373
▁keemten	-11.3732
45	-11.3732
▁muhim	-11.3734
▁upon	-11.3734
▁lodha	-11.3738
▁chahenge	-11.3744
▁ur	-11.3746
lekin	-11.3748
▁saha	-11.3749
▁tharoor	-11.375
▁bottle	-11.375
▁policeman	-11.3751
▁setting	-11.3753
▁pahalu	-11.3754
▁hatyakand	-11.3757
▁treepathi	-11.3759
▁leaked	-11.376
▁malini	-11.3761
▁sabak	-11.3761
▁venkaiah	-11.3763
▁birla	-11.3766
▁sridevi	-11.3771
kai	-11.3771
▁summer	-11.3771
▁shantipurna	-11.3773
▁electric	-11.3774
▁opponents	-11.3775
ang	-11.3775
▁kishan	-11.3775
▁minorities	-11.3775
▁makers	-11.378
▁falls	-11.378
▁adhikansh	-11.3782
▁answers	-11.3785
▁tdp	-11.3787
▁bolt	-11.3793
▁jitne	-11.3796
▁boyfriend	-11.3796
▁chadh	-11.3798
▁vidhi	-11.3801
▁belongs	-11.3803
▁anwar	-11.3809
rounder	-11.3809
▁hide	-11.3811
wan	-11.3811
▁balle	-11.3812
▁gunvattta	-11.3815
▁uniform	-11.3818
▁sabakaa	-11.382
-5	-11.3821
▁kriti	-11.3821
▁consist	-11.3824
jammu	-11.3825
mu	-11.3826
▁kaansya	-11.3835
▁2019:	-11.3838
▁nadda	-11.3838
▁loved	-11.384
▁mastermind	-11.3843
▁simultaneously	-11.3844
▁condolences	-11.3846
▁crimes	-11.3849
▁sample	-11.385
▁tanj	-11.385
abhi	-11.3851
meri	-11.3854
▁biz	-11.3859
▁la	-11.3862
▁reward	-11.3862
▁dominated	-11.3863
▁nit	-11.3866
▁bataati	-11.3867
▁gathering	-11.3868
▁pabandi	-11.3869
▁vyapaariyon	-11.387
▁dusron	-11.387
▁taadaad	-11.3871
▁waste	-11.3872
▁wake	-11.3872
▁consent	-11.3873
▁screening	-11.3873
▁darbhanga	-11.3874
▁cutting	-11.3875
▁prakritik	-11.3877
▁ladaaku	-11.3877
▁garg	-11.3878
▁rujhaan	-11.3879
▁laana	-11.388
▁amal	-11.3881
line	-11.3888
▁discussions	-11.3888
▁ramnath	-11.3889
▁contestants	-11.3891
▁hairaani	-11.3893
▁wicketiper	-11.3893
▁linked	-11.3895
▁distributed	-11.3899
▁sleeping	-11.3899
char	-11.39
bai	-11.39
▁padhaa	-11.3901
▁bopanna	-11.3902
▁chavan	-11.3903
▁critics	-11.3904
▁ngo	-11.3904
▁anu	-11.3907
▁banaam	-11.3907
▁square	-11.3908
▁mritkon	-11.3909
▁sitaraman	-11.3909
mm	-11.3911
▁channelon	-11.3913
▁existing	-11.3913
▁khurana	-11.3915
▁ul	-11.3915
▁trip	-11.392
▁baadhit	-11.3923
▁104	-11.3924
om	-11.3925
▁jaiswal	-11.3925
▁prarthana	-11.3928
▁reaction	-11.3928
▁wealth	-11.3932
▁tweeting	-11.3935
▁ruk	-11.3935
▁languages	-11.3935
▁removing	-11.3936
▁phixing	-11.3937
▁remote	-11.3943
36	-11.3947
▁argentina	-11.3948
▁gaharaa	-11.3948
▁kholaa	-11.3949
▁aavantit	-11.3953
▁achievement	-11.3957
▁pool	-11.3959
▁2014.	-11.3959
▁thok	-11.3961
people	-11.3967
▁fiscal	-11.3967
▁eendhan	-11.3967
▁majdoor	-11.3971
▁hdfc	-11.3972
▁ritesh	-11.3975
known	-11.3976
▁testing	-11.3976
▁acres	-11.3977
▁tabdeel	-11.3978
▁rishtedaar	-11.3979
▁gandhinagar	-11.398
▁robin	-11.3984
▁baadha	-11.3985
▁exemption	-11.3986
▁shok	-11.3988
idi	-11.3991
▁mod	-11.3992
view	-11.3992
▁bhattacharya	-11.3993
▁talaq	-11.3995
▁protested	-11.3996
▁kallis	-11.4001
▁location	-11.4005
▁adopt	-11.401
▁jinping	-11.401
▁deposit	-11.401
▁ladi	-11.4012
chand	-11.4013
val	-11.4014
▁manzil	-11.4014
▁sangyaan	-11.4017
▁sil	-11.4017
▁laborers	-11.4019
▁phool	-11.4023
▁supremo	-11.4025
▁onion	-11.4026
▁dinner	-11.4027
▁pustak	-11.4027
▁chemistry	-11.4028
▁banati	-11.403
▁180	-11.4034
▁trees	-11.4035
▁suspicious	-11.4036
▁kranti	-11.4037
▁demonstration	-11.4037
▁rapidly	-11.404
▁previously	-11.404
▁naate	-11.4044
▁dhimi	-11.4048
ala	-11.4048
▁dijie	-11.4048
▁nafrat	-11.4049
▁108	-11.4051
▁marijon	-11.4053
▁2011,	-11.4055
28	-11.4058
▁saurav	-11.4061
▁hillari	-11.4063
▁cpm	-11.4064
▁pariyon	-11.4064
▁photography	-11.4072
▁jakhmi	-11.4073
▁praadhikaran	-11.4074
▁purchased	-11.4076
ot	-11.4076
▁collapsed	-11.4076
▁samajhate	-11.4077
▁rid	-11.4078
▁pes	-11.4078
▁photographs	-11.4079
▁bantwaare	-11.4083
▁prasiddh	-11.4083
▁talwaar	-11.4083
▁sreesanth	-11.4089
▁mukademe	-11.4094
▁avishvaas	-11.4096
▁episod	-11.4098
▁sand	-11.4099
▁kong	-11.4101
▁maxwell	-11.4103
▁occasions	-11.4105
▁vipareet	-11.4105
▁vision	-11.4111
▁baithi	-11.4113
▁dada	-11.4117
▁draw	-11.4117
▁afghan	-11.4118
57	-11.4118
▁petitioner	-11.412
▁jepi	-11.4121
▁rahman	-11.4122
▁thrown	-11.4124
▁iesai	-11.4126
▁grow	-11.4128
▁sajid	-11.4131
▁behest	-11.4133
▁blamed	-11.4134
▁barkhaast	-11.4138
▁dukhi	-11.4138
▁mallikarjun	-11.4139
▁janhit	-11.414
▁asi	-11.4145
▁sadi	-11.4148
▁feared	-11.4149
dh	-11.415
▁gowda	-11.4152
▁mistakes	-11.4153
▁obc	-11.4154
▁sanchalit	-11.4155
▁taimur	-11.4159
▁lokapriyata	-11.416
80	-11.416
▁swearing	-11.4161
▁kabul	-11.4161
▁yogyata	-11.4164
▁1500	-11.4166
▁quick	-11.4167
▁parichaalan	-11.417
▁pa	-11.4174
▁bheeshan	-11.4174
▁ludhiana	-11.4178
▁strange	-11.4178
▁madhu	-11.4179
31	-11.4182
▁girlfriend	-11.4185
▁improving	-11.4187
▁ends	-11.4189
▁narmada	-11.4189
▁dhokhadhadi	-11.4192
▁moments	-11.4196
▁marry	-11.42
▁padma	-11.4202
▁noise	-11.4203
▁asks	-11.4205
▁pratidwandvi	-11.4206
▁entrance	-11.4206
35	-11.4207
▁swing	-11.4209
eshwar	-11.4209
tv	-11.4216
▁argued	-11.4216
▁sahare	-11.4217
▁maanavadhikaar	-11.4217
▁loktantric	-11.422
▁difficulty	-11.4222
▁helpline	-11.4223
▁suspend	-11.4224
▁finch	-11.4227
▁pahane	-11.423
▁shunya	-11.4231
▁ginati	-11.4231
▁jansabha	-11.4234
▁ltd	-11.4239
▁nirav	-11.4241
▁maasoom	-11.4243
▁ashes	-11.4245
▁vyapam	-11.425
▁tips	-11.4251
▁courses	-11.4254
▁160	-11.4255
▁arakshit	-11.4256
▁seek	-11.4256
▁taiyaariyon	-11.4256
▁examinations	-11.4257
▁jhel	-11.4258
▁narebaaji	-11.4258
▁rajdoot	-11.4259
▁receive	-11.4259
▁agava	-11.4263
▁javadekar	-11.4267
▁ad	-11.427
▁heads	-11.4271
▁none	-11.4272
dhan	-11.4276
▁pandeya	-11.4278
▁sina	-11.428
▁pstview	-11.4281
▁srinivasan	-11.4284
▁might	-11.4286
▁diarect	-11.4286
▁tiemasi	-11.429
▁bhedbhaav	-11.4292
▁lk	-11.4292
▁suni	-11.4295
▁replace	-11.43
▁oneplus	-11.4301
▁naamon	-11.4302
▁aasmaan	-11.4304
free	-11.4304
▁dilaa	-11.4304
▁stance	-11.4304
▁dhaka	-11.431
▁abbaas	-11.4311
▁vaigyanikon	-11.4311
dal	-11.4312
▁spardhaa	-11.4313
▁highly	-11.4314
term	-11.4317
▁prominent	-11.4321
▁mass	-11.4323
▁circuit	-11.4325
pu	-11.4327
▁shweta	-11.4327
▁rajinikanth	-11.4332
▁dekhenge	-11.4337
▁ghate	-11.4339
▁stronghold	-11.4339
hu	-11.434
▁caff	-11.4344
▁nehra	-11.4345
▁dgp	-11.4349
▁residents	-11.435
police	-11.4353
▁convoy	-11.4354
▁stress	-11.4356
▁viruddh	-11.4361
muslim	-11.4362
mukhyamantri	-11.4364
▁shrinivasana	-11.4365
▁yachikakarta	-11.4368
14	-11.4369
▁shelter	-11.4371
▁viraasat	-11.4372
55	-11.4373
▁ku	-11.4374
▁comeback	-11.4387
▁hitting	-11.4388
▁print	-11.4389
kaa	-11.4389
▁dwarka	-11.4392
▁117	-11.4392
▁naaraa	-11.4392
▁setback	-11.4393
▁sansthaaon	-11.4394
▁puch	-11.4397
▁kushwaha	-11.4398
▁empty	-11.4399
▁decade	-11.4401
▁beeti	-11.4401
▁nikaale	-11.4403
▁failaa	-11.4408
▁maoists	-11.4412
▁arguments	-11.4416
▁chalaai	-11.4416
▁jodakar	-11.442
bade	-11.4422
▁communities	-11.4423
▁khulaase	-11.4428
▁mayank	-11.4428
▁jul	-11.4431
42	-11.4434
▁sanchaar	-11.4436
▁nikaay	-11.4436
▁commando	-11.4439
▁dashakon	-11.444
mohammad	-11.4442
▁aurangabad	-11.4442
▁tip	-11.4447
▁theater	-11.4449
▁negligence	-11.4453
▁neet	-11.4456
▁pregnant	-11.4457
▁bandra	-11.4457
▁reform	-11.4458
▁purvanchal	-11.4462
▁stomach	-11.4462
▁zaruri	-11.4464
▁chaaku	-11.4464
▁animal	-11.4465
▁zaheer	-11.4466
▁turki	-11.4466
▁tara	-11.4468
▁kosh	-11.4471
▁geeta	-11.448
▁graminon	-11.4481
▁bangladeshi	-11.4485
▁bhaawanaaon	-11.4486
▁commit	-11.4488
▁seconds	-11.4488
▁samoohon	-11.4488
▁grief	-11.4489
▁commitment	-11.449
▁adding	-11.4491
21	-11.4491
▁boxing	-11.4492
pati	-11.4494
▁recover	-11.4495
▁participating	-11.4498
▁anantnag	-11.4499
▁akaash	-11.4499
▁5:	-11.4503
▁sukh	-11.4504
▁srilankai	-11.4504
▁apeksha	-11.4507
▁bason	-11.4509
▁jyotiraditya	-11.4513
▁fishan	-11.4513
anti	-11.4517
today	-11.4519
▁customer	-11.4519
▁urged	-11.4523
▁fly	-11.4524
▁nakli	-11.4525
▁conection	-11.4527
not	-11.4528
▁evms	-11.4531
▁apex	-11.4532
▁naxalite	-11.4537
▁decreased	-11.4537
▁upendra	-11.4544
▁hiding	-11.4546
▁mine	-11.4549
▁thus	-11.4554
05	-11.4556
▁vitaran	-11.4556
▁skills	-11.4557
▁finals	-11.4558
▁jee	-11.456
▁pratyaksh	-11.456
▁arrive	-11.456
priyanka	-11.4562
▁publicity	-11.4563
99	-11.4564
▁sthir	-11.4565
▁riding	-11.4566
▁tyagi	-11.4568
▁grounds	-11.457
▁supremeo	-11.4572
▁lathi	-11.4578
▁businessmen	-11.4578
▁steshnon	-11.458
▁qureshi	-11.4581
▁tyohaar	-11.4584
▁suspect	-11.4585
▁pti	-11.4585
▁invest	-11.4587
▁shrikant	-11.4587
▁supplai	-11.4587
▁mu	-11.4589
ms	-11.459
09	-11.4591
▁kaaron	-11.4593
▁museum	-11.4597
▁qualification	-11.4598
▁variya	-11.4598
▁rival	-11.4599
▁adhisuchana	-11.4603
▁gahari	-11.4603
04	-11.4605
▁dham	-11.4605
▁mad	-11.4606
▁websites	-11.4607
▁maurya	-11.4608
▁bravo	-11.4612
narendra	-11.4614
▁jibi	-11.4617
▁vegetables	-11.4619
▁sets	-11.4621
▁maanata	-11.4622
▁gharavaalon	-11.4624
▁reverse	-11.4625
▁unemployment	-11.4626
▁kunal	-11.4629
▁bungalow	-11.4634
▁stopping	-11.4635
▁romance	-11.464
▁challengers	-11.464
▁nayi	-11.4641
▁belt	-11.4641
▁ritern	-11.4643
▁3-	-11.4643
even	-11.4647
▁1995	-11.465
▁aajkal	-11.4651
▁belgium	-11.4654
▁ruthik	-11.466
65	-11.4662
▁colleague	-11.4664
ley	-11.4664
▁bipasha	-11.4665
▁kulkarni	-11.4665
▁moti	-11.4668
▁northeast	-11.4668
▁tender	-11.4674
▁visphotak	-11.4677
▁nov	-11.4678
▁concept	-11.4679
▁uthaakar	-11.468
basapa	-11.4684
▁jd	-11.4686
▁plateform	-11.4686
▁inspired	-11.469
▁26/11	-11.469
▁obisi	-11.4692
▁porn	-11.4695
▁naval	-11.4697
▁meyar	-11.4697
▁esbiai	-11.4698
▁bengali	-11.4698
▁sunaaya	-11.4701
▁enemy	-11.4702
▁earning	-11.4703
▁ajukeshan	-11.4705
-19	-11.4706
▁bahuguna	-11.4707
karnataka	-11.471
▁downlod	-11.4712
beingsalmankhan	-11.4715
nar	-11.4716
▁sal	-11.4718
-8	-11.4718
▁saakshaatkaar	-11.4719
▁tharur	-11.4721
bb	-11.4724
▁dikhaae	-11.4725
▁prashansa	-11.4727
▁dinabhar	-11.4727
▁chest	-11.4729
▁kidney	-11.4733
▁inhone	-11.4734
▁excise	-11.4734
▁shuddh	-11.4739
▁shatrughan	-11.4739
▁chancellor	-11.4742
▁2016-17	-11.4745
▁connectivity	-11.475
▁vastuon	-11.4751
▁vivo	-11.4758
▁mizoram	-11.4759
▁objected	-11.4762
▁studied	-11.4764
▁rickshaw	-11.4765
▁3000	-11.4766
▁tivrata	-11.4766
▁ilaaka	-11.4768
▁background	-11.4771
▁esaiti	-11.4772
▁saman	-11.4775
▁ekadivasiy	-11.4775
▁opshan	-11.4776
▁makapa	-11.4781
▁rapid	-11.4784
▁daredevils	-11.4784
▁paaegaa	-11.4785
▁vine	-11.4787
▁premi	-11.4788
▁taskari	-11.479
▁pilots	-11.4791
▁mein	-11.4791
▁iron	-11.4794
▁joy	-11.4794
▁item	-11.4798
▁proof	-11.48
▁charnon	-11.4805
▁khuli	-11.4805
▁nrc	-11.4806
▁upkaran	-11.4807
▁properties	-11.481
▁ssp	-11.4813
▁awareness	-11.4813
age	-11.4814
▁toilets	-11.4816
ase	-11.4816
▁vilas	-11.482
▁quota	-11.482
▁theme	-11.4828
▁royles	-11.4828
▁cancel	-11.4828
▁constant	-11.4829
▁leftinent	-11.4831
▁clarification	-11.4832
▁dikhaate	-11.4833
▁bhukh	-11.4834
▁garm	-11.4834
▁shots	-11.4836
▁mm	-11.4836
▁bhaiya	-11.484
▁enjio	-11.4841
▁mandate	-11.4842
▁badhaai	-11.4843
▁chunautiyon	-11.4844
▁shani	-11.4844
▁compete	-11.4844
▁maken	-11.4845
▁qamar	-11.4848
▁celebrations	-11.4848
punjab	-11.4848
▁aashwast	-11.4849
bcci	-11.4851
▁realme	-11.4852
▁california	-11.4853
cm	-11.4853
▁listening	-11.4853
▁jhadap	-11.4853
▁dhokhaa	-11.4854
▁imam	-11.4857
▁neerav	-11.4858
▁iesas	-11.4858
▁filmi	-11.4864
▁mandatory	-11.4865
▁sazaa	-11.4865
▁sava	-11.4867
▁aatmghaatee	-11.4868
▁paras	-11.487
▁indiens	-11.4874
▁pidipi	-11.4876
▁forming	-11.4876
▁format	-11.4877
▁ignored	-11.4878
▁ellection	-11.4879
▁chun	-11.4879
▁khole	-11.488
sapa	-11.4881
▁suvidhaon	-11.4881
▁chaandi	-11.4885
▁rajmarg	-11.4886
▁turnout	-11.4888
▁sulajhane	-11.489
▁dry	-11.489
▁declare	-11.4892
▁santusht	-11.4892
▁jala	-11.4893
▁filmmaker	-11.4893
▁achievements	-11.4897
▁reducing	-11.4897
▁juta	-11.4898
▁plate	-11.4902
▁im	-11.4903
▁vilay	-11.4909
▁atul	-11.4913
▁tandon	-11.4916
ted	-11.4917
▁aachaar	-11.492
▁southern	-11.4925
▁edge	-11.4927
▁inaam	-11.4927
▁chhu	-11.4927
▁aankh	-11.4928
▁gurjar	-11.4935
▁sarkarein	-11.4937
▁abhaav	-11.4937
▁bowl	-11.4938
▁6:	-11.4939
▁avgat	-11.4939
▁pratimaa	-11.4944
▁kotwali	-11.4944
▁divilliars	-11.4945
▁munda	-11.4945
▁origin	-11.495
▁clip	-11.4955
uk	-11.4957
▁stokes	-11.496
▁climate	-11.4961
▁grade	-11.4961
▁padtaal	-11.4963
▁mah	-11.4965
▁tadake	-11.4965
▁affair	-11.4966
2019	-11.497
▁crew	-11.4973
▁prashansakon	-11.4977
ner	-11.4977
▁fishermen	-11.4978
▁hamalaavaron	-11.4983
▁janajati	-11.4983
▁pahunchakar	-11.4983
▁vivaran	-11.4986
▁mitti	-11.4987
▁soul	-11.4987
▁charchit	-11.4988
▁representative	-11.4989
▁lowest	-11.4991
▁shram	-11.4991
▁roosi	-11.4991
▁surrounding	-11.4996
▁bhupendra	-11.4996
▁vishleshan	-11.4997
▁straight	-11.5
▁ruchi	-11.5004
▁gali	-11.5006
3.	-11.5011
▁slip	-11.5013
▁balakot	-11.5013
ts	-11.5016
▁aapattijanak	-11.5022
ten	-11.5023
▁khattar	-11.5026
▁faislon	-11.5028
▁mujeec	-11.5029
▁ikattha	-11.503
▁rajnikant	-11.5032
▁studio	-11.5032
▁nibhaayaa	-11.5033
▁bread	-11.5036
▁honored	-11.504
▁covered	-11.5044
▁chaunkaane	-11.5045
▁115	-11.5047
bad	-11.505
▁dera	-11.5052
dan	-11.5052
▁abhinandan	-11.5053
▁haul	-11.5054
▁completing	-11.5058
▁2009,	-11.5058
▁chavaan	-11.506
▁succeed	-11.5061
▁pramaan	-11.5065
▁lt	-11.5067
▁baithne	-11.5069
▁territory	-11.5072
▁sourav	-11.5073
▁newly	-11.5074
▁lesson	-11.5077
▁seemed	-11.5077
endra	-11.5079
▁nichali	-11.5082
▁tilak	-11.5083
▁worry	-11.5084
▁dear	-11.5088
▁jutaney	-11.5089
▁holds	-11.509
▁heritage	-11.509
▁bhagya	-11.509
▁collector	-11.5095
▁ang	-11.5099
▁daravaaje	-11.5101
▁mars	-11.5103
54	-11.5105
▁surprising	-11.5107
▁diamond	-11.5111
▁posting	-11.5111
▁upaadhyaay	-11.5112
▁christian	-11.5116
▁jds	-11.5117
▁karwaai	-11.512
▁microsoft	-11.5122
▁paati	-11.5124
▁aman	-11.5128
paas	-11.5131
▁finding	-11.5133
▁benefited	-11.5137
▁landed	-11.5137
▁argument	-11.5138
▁curb	-11.5142
▁sambhavat	-11.5143
▁resource	-11.5144
▁cancellation	-11.5148
▁naujavaanon	-11.515
world	-11.5151
▁rivers	-11.5152
▁babbar	-11.5153
▁raw	-11.5154
▁nephew	-11.5154
▁legaa	-11.5157
▁var	-11.516
▁prastut	-11.5161
▁island	-11.5166
▁aayi	-11.5167
▁midnight	-11.5174
▁pilgrims	-11.5176
▁consumers	-11.5177
▁constituencies	-11.5179
▁chaah	-11.5179
▁secretariat	-11.5179
▁vishal	-11.5182
gaanv	-11.5185
▁reaches	-11.5186
air	-11.5186
▁han	-11.5186
▁objection	-11.5188
▁rebel	-11.5189
▁loc	-11.519
▁relation	-11.5196
▁aim	-11.5198
▁sabaki	-11.5201
adarsh	-11.5201
▁wicketkeeper	-11.5202
▁ninth	-11.5203
▁utsav	-11.5205
▁daavedaar	-11.5206
▁nikhil	-11.5207
▁bluetooth	-11.5207
▁braavo	-11.5207
▁partners	-11.5208
▁shrivastav	-11.5211
▁apologized	-11.5212
▁gaadiyaan	-11.5213
▁charging	-11.5217
▁neeraj	-11.5218
▁shen	-11.522
60	-11.5222
▁saste	-11.5225
▁participation	-11.5226
▁jhagada	-11.5226
non	-11.5227
kaar	-11.5228
▁ehsaas	-11.5229
▁evacuated	-11.5229
▁aspects	-11.523
▁farooq	-11.523
▁gher	-11.5231
▁shor	-11.5231
▁aakaar	-11.5232
▁2010,	-11.5233
▁kaarobaariyon	-11.5233
▁momentum	-11.5237
▁promo	-11.5237
▁rashtramandal	-11.5237
▁shakeel	-11.5243
ako	-11.5247
▁iraadaa	-11.5248
▁summoned	-11.5248
▁lake	-11.5249
▁serving	-11.5251
▁naukariyon	-11.5251
46	-11.5254
34	-11.5256
▁aamtaur	-11.5257
est	-11.5259
▁chalangers	-11.5259
ib	-11.5267
▁mahmud	-11.5267
▁offers	-11.5273
▁italian	-11.5274
▁mahangaa	-11.5274
32	-11.5276
▁patibaddhta	-11.5276
▁exports	-11.5277
▁thikaanon	-11.5279
▁mall	-11.5287
▁mahant	-11.5289
▁pray	-11.5289
▁brij	-11.5291
▁rog	-11.5295
▁heroin	-11.5298
▁mini	-11.5298
▁countrymen	-11.5303
▁seshan	-11.5304
▁aaf	-11.5312
▁afvaah	-11.5313
▁capable	-11.5314
▁mahasabha	-11.5315
▁jansankhya	-11.5318
▁invitation	-11.5319
▁math	-11.5319
▁threats	-11.5319
▁decrease	-11.532
▁lies	-11.5322
▁sashastr	-11.5326
▁noon	-11.5327
▁ratio	-11.5329
▁researchers	-11.5329
▁virbhadra	-11.5331
▁hans	-11.5331
▁bulandshahr	-11.5338
▁updated	-11.5342
▁mujffarnagar	-11.5342
▁speeches	-11.5343
▁clarke	-11.5343
▁haarane	-11.5344
▁muzaffarpur	-11.5347
jal	-11.5347
▁sambhala	-11.5348
▁kidnapping	-11.535
▁tibet	-11.5355
nda	-11.5357
▁radar	-11.5357
▁sate	-11.5361
▁pukhta	-11.5364
▁map	-11.5364
▁formal	-11.5365
▁whatsap	-11.5366
ika	-11.5368
uddin	-11.5368
ac	-11.5371
▁parv	-11.5372
▁galaa	-11.5375
▁venue	-11.5378
▁dairedevills	-11.5378
▁clark	-11.538
▁suffer	-11.5385
tra	-11.5386
▁kuraishi	-11.5387
▁exclusive	-11.5388
▁zardari	-11.5388
▁pradarshit	-11.5388
month	-11.539
43	-11.5392
▁bhang	-11.5395
▁bhansali	-11.5396
▁shridevi	-11.5396
▁diemke	-11.5396
▁sindhiya	-11.5398
▁kavi	-11.5399
▁stolen	-11.5407
taiba	-11.5409
▁guhaar	-11.5409
▁chhath	-11.541
▁hataae	-11.5414
▁srisanth	-11.5414
▁strengthening	-11.5415
▁gap	-11.5415
▁grenade	-11.5418
▁tihar	-11.5419
▁doklam	-11.5419
▁learning	-11.542
▁wipro	-11.542
▁chaiye	-11.5422
▁historical	-11.5424
▁sarabjit	-11.5426
▁todaa	-11.5427
dr	-11.5429
▁eemaandaaree	-11.5432
▁rajg	-11.5434
▁maaruti	-11.5435
▁iqbal	-11.5437
▁nirmal	-11.5437
▁standards	-11.5439
hit	-11.5443
▁tailor	-11.5446
▁stable	-11.5447
▁merit	-11.5449
▁huye	-11.5452
▁suit	-11.5453
▁lijie	-11.5453
▁babat	-11.5456
▁pasandida	-11.5459
▁kaatane	-11.546
▁binar	-11.546
▁vrath	-11.5462
▁sapna	-11.5463
▁possession	-11.5464
4.	-11.5466
▁mulk	-11.5467
▁naga	-11.5468
▁jahir	-11.5472
▁pratishthit	-11.5475
▁atake	-11.5475
▁prishthbhumi	-11.5476
▁chetan	-11.5481
pat	-11.5481
pad	-11.5483
▁infosys	-11.5484
▁bardaasht	-11.5486
▁sirsa	-11.5486
▁controlled	-11.5488
▁priti	-11.5488
▁noted	-11.5491
▁roshni	-11.5491
▁jahan	-11.5492
▁upadhyay	-11.5493
▁rishabh	-11.5494
▁samarpit	-11.5496
▁satark	-11.5497
▁vadodara	-11.5498
▁shubh	-11.5498
▁sudden	-11.5502
▁maangon	-11.5503
▁approach	-11.5503
▁anusandhan	-11.5504
▁jadyu	-11.5504
▁ipies	-11.5505
▁pavitra	-11.5508
▁lautaa	-11.5511
▁tabiyat	-11.5513
▁ummiden	-11.5515
▁jumped	-11.5517
▁variants	-11.5519
▁tourist	-11.552
▁dates	-11.552
▁memon	-11.552
▁sipiem	-11.5521
▁absolutely	-11.5521
▁masti	-11.5529
▁chosen	-11.5531
▁azamgarh	-11.5537
▁buried	-11.5537
▁praising	-11.5537
▁bhaaiyon	-11.5537
▁aashirwad	-11.5538
▁blessings	-11.5544
kul	-11.5547
▁tyaagi	-11.5547
▁pretext	-11.555
▁rescued	-11.555
▁lpg	-11.5552
▁pack	-11.5553
37	-11.5561
▁provides	-11.5561
▁manshaa	-11.5562
▁accidents	-11.5563
▁niraashaa	-11.5563
▁1994	-11.5564
▁sumitra	-11.5565
▁funny	-11.5566
▁kushvaha	-11.5572
▁fingerprint	-11.5574
bse	-11.5577
▁trends	-11.5582
▁hamase	-11.5582
▁saanskrithik	-11.5587
▁jiladhikari	-11.5587
▁helicopters	-11.559
▁satyendra	-11.5591
▁remembered	-11.5593
▁baagi	-11.5595
▁fellow	-11.5597
▁sitaron	-11.5598
▁dubey	-11.56
▁reveal	-11.56
▁tal	-11.5601
▁tonnes	-11.5602
▁jayja	-11.5603
▁appears	-11.5605
▁height	-11.5606
▁explained	-11.5607
▁vivaadaaspad	-11.5607
▁forcibly	-11.5609
bu	-11.5611
wi	-11.5611
▁mon	-11.562
▁niraj	-11.5621
▁registering	-11.5623
▁garbage	-11.5629
lin	-11.563
▁vasuuli	-11.563
che	-11.5633
▁sony	-11.5633
▁maudrik	-11.5635
-16	-11.5639
▁intensified	-11.5639
▁jonas	-11.564
▁duungaa	-11.5642
▁bataata	-11.5644
▁infosis	-11.5645
▁siddaramaiah	-11.5645
▁vodafone	-11.5648
▁vishyon	-11.5649
▁gupt	-11.5651
▁agitation	-11.5654
▁tight	-11.5659
▁kevin	-11.566
▁ekadam	-11.5661
spinner	-11.5662
▁shina	-11.5663
▁jaaniye	-11.5665
▁votaron	-11.5665
▁oppose	-11.5668
▁losses	-11.5668
▁separated	-11.5669
▁prajapati	-11.5669
▁farming	-11.5674
▁awaz	-11.5677
▁durbhagyapurna	-11.5682
hari	-11.5683
▁pil	-11.5684
▁icici	-11.5684
▁delayed	-11.5684
▁noujvaan	-11.5686
▁wang	-11.5688
▁rae	-11.569
best	-11.569
▁sarbajit	-11.5691
▁considers	-11.5691
▁eke	-11.5692
▁kavayad	-11.5694
▁katl	-11.5696
▁organizing	-11.5696
▁patibaddh	-11.5698
art	-11.5699
▁paramilitary	-11.5701
▁identify	-11.5702
▁sumit	-11.5705
▁throwing	-11.5705
▁upasthiti	-11.5706
▁deeply	-11.5706
▁banate	-11.5708
▁blocked	-11.5708
▁indices	-11.5709
▁insaaf	-11.5709
▁calm	-11.5711
▁kalyan	-11.5712
-10	-11.5712
▁meat	-11.5714
▁khapat	-11.5715
▁sing	-11.5716
▁acquitted	-11.5717
▁parajeet	-11.5722
▁leni	-11.5722
▁dikhataa	-11.5722
▁tested	-11.5724
haryana	-11.5728
deep	-11.5728
▁marg	-11.5728
▁swine	-11.5729
):	-11.573
▁author	-11.573
▁peshawar	-11.5731
▁jaanati	-11.5734
▁naqvi	-11.5734
▁tanks	-11.5735
border	-11.5735
family	-11.5737
▁inspiration	-11.574
▁ti	-11.5741
▁paaramparik	-11.5741
▁varjan	-11.5743
▁aahat	-11.5745
▁settled	-11.5746
▁owners	-11.5747
hour	-11.575
▁dilchaspee	-11.5752
▁everyday	-11.5752
▁hindustani	-11.5754
▁ieenes	-11.5757
▁bavaal	-11.5759
▁worst	-11.5762
▁fare	-11.5769
font	-11.5769
▁existence	-11.5773
▁(1)	-11.5775
rajasthan	-11.5776
▁printed	-11.5776
▁asafal	-11.5777
▁kaidi	-11.5781
▁burhan	-11.5781
▁followers	-11.5781
▁lokesh	-11.5787
▁looted	-11.5788
▁fixing	-11.5791
▁secretaries	-11.5792
▁jaradaari	-11.5795
▁echdiefasi	-11.5795
▁steven	-11.5795
▁praavdhaanon	-11.5797
▁rawal	-11.5797
▁sahara	-11.5799
▁javaabi	-11.58
▁sitare	-11.5801
▁inform	-11.5801
▁broadcasting	-11.5804
▁peak	-11.5808
▁adam	-11.5811
53	-11.5812
▁committing	-11.5813
▁obviously	-11.5814
bh	-11.5815
dha	-11.5819
▁kism	-11.582
▁kute	-11.5823
▁kulbhushan	-11.5825
▁utyub	-11.5825
▁maakan	-11.5829
▁stability	-11.583
▁lohia	-11.5835
▁masalaa	-11.5835
▁jeep	-11.5837
▁ig	-11.5838
▁sanyojak	-11.5839
▁jump	-11.5839
▁japanese	-11.5841
▁baayen	-11.5848
▁khatter	-11.5848
▁sangrah	-11.5849
▁designed	-11.585
▁palat	-11.5851
▁dhul	-11.5852
▁gan	-11.5852
▁chakra	-11.5856
▁shraddhaluon	-11.5856
▁austrailia	-11.5856
▁priced	-11.5859
▁stareey	-11.586
▁fielding	-11.586
▁pharma	-11.5861
▁nanda	-11.5861
39	-11.5862
▁rajanyik	-11.5865
▁procession	-11.5868
▁govinda	-11.5868
▁jaishankar	-11.5871
▁objective	-11.5872
▁badnaam	-11.5874
▁rashmi	-11.5877
▁apartment	-11.5878
▁fog	-11.5879
▁smoke	-11.588
▁objectionable	-11.5883
▁aakarshith	-11.5886
▁bali	-11.5888
▁mile	-11.5888
▁karun	-11.5888
▁profession	-11.5895
gujarat	-11.5896
▁mjedaar	-11.5899
▁srivastava	-11.5899
les	-11.5901
▁idol	-11.5902
▁variant	-11.5903
▁bha	-11.5903
▁agrim	-11.5905
ful	-11.5905
▁spes	-11.5907
▁nivas	-11.5908
▁dignity	-11.5909
▁khandan	-11.5913
▁idia	-11.5919
▁constituted	-11.5919
▁deadline	-11.592
▁joseph	-11.592
▁benami	-11.5922
▁passion	-11.5922
▁guards	-11.5923
▁padegi	-11.5923
▁theaters	-11.5923
▁coordination	-11.5925
▁anbhavi	-11.5925
con	-11.5927
▁koshishon	-11.5927
▁yo	-11.5928
▁sachivalay	-11.593
▁alternative	-11.5931
▁crossing	-11.5931
▁underway	-11.5931
▁tribes	-11.5931
▁settle	-11.5938
▁tomar	-11.5938
vir	-11.5942
▁lady	-11.5942
▁suspects	-11.5951
kisi	-11.5954
▁bharadwaj	-11.5955
▁neighbors	-11.5955
▁movies	-11.5956
▁chen	-11.5958
▁tulsi	-11.596
▁nehwal	-11.5961
▁pat	-11.5961
▁grew	-11.5965
der	-11.5966
▁venkaiya	-11.5967
▁libya	-11.5971
▁mumkin	-11.5972
▁4-	-11.5975
▁laalkrishna	-11.5976
▁mud	-11.5979
▁bandhak	-11.5982
▁tarj	-11.5982
▁moto	-11.5983
▁102	-11.5985
▁ipisi	-11.5987
▁county	-11.5987
ft	-11.599
▁consensus	-11.5991
▁vaid	-11.5992
▁diploma	-11.5993
vin	-11.5994
▁ravaiya	-11.5994
▁counted	-11.5995
▁aatmavishvaas	-11.5995
▁parijan	-11.5999
▁jogi	-11.6003
▁nirnaayak	-11.6006
▁vaai	-11.6006
bahubali	-11.6007
▁(0)	-11.6008
▁fifty	-11.601
▁kahen	-11.601
▁circle	-11.6011
din	-11.6015
▁2008,	-11.6015
▁laundering	-11.6016
▁tanker	-11.6016
▁2015.	-11.6016
▁katha	-11.6016
▁bio	-11.6019
▁anukool	-11.6019
▁bigger	-11.6025
▁intazaar	-11.6025
▁3,000	-11.6028
▁temples	-11.6028
ian	-11.6029
▁bhim	-11.6031
▁confusion	-11.6038
▁shouting	-11.6039
▁samajhnaa	-11.6041
▁dharma	-11.6042
sam	-11.6048
▁quintal	-11.6051
▁tehsil	-11.6051
▁samasyaayein	-11.6051
▁eemaandaar	-11.6052
▁fate	-11.6055
75	-11.6058
▁expansion	-11.6059
▁suspicion	-11.6059
▁dainik	-11.6063
▁separately	-11.6065
ff	-11.6067
▁isha	-11.6067
▁bhansaali	-11.6068
▁tihaad	-11.6069
▁yuan	-11.607
▁producers	-11.607
▁2017-18	-11.6071
▁wimbledon	-11.6072
▁mess	-11.6073
▁nirdeshit	-11.6075
▁pratinidhiyon	-11.6076
▁seeded	-11.6078
▁nationalist	-11.608
▁civilians	-11.6084
▁establish	-11.6085
▁itar	-11.6086
▁kumaraswamy	-11.6086
ci	-11.6086
▁suspension	-11.6087
▁tag	-11.6088
▁dna	-11.6089
▁rk	-11.609
▁saxena	-11.609
▁30-	-11.6091
▁chaukon	-11.6093
▁chalem	-11.6094
▁midst	-11.6094
▁personality	-11.6097
bigg	-11.6097
▁legislature	-11.6098
▁chaape	-11.6098
▁sadhu	-11.6098
▁waiver	-11.6099
▁sites	-11.6099
▁ranneetik	-11.61
▁gradually	-11.6101
▁khinch	-11.6102
▁q	-11.6102
▁uthe	-11.6105
▁chachaa	-11.6108
▁vk	-11.611
▁surfaced	-11.6112
▁gajendra	-11.6113
▁dimple	-11.6115
vo	-11.612
▁ca	-11.612
▁courts	-11.6121
▁vakaalat	-11.6124
▁size	-11.6124
▁kama	-11.6128
▁plants	-11.6132
▁uthta	-11.6137
▁bhardwaj	-11.6141
▁reviewed	-11.6142
▁crying	-11.6144
▁baseless	-11.6144
▁1983	-11.6146
▁neck	-11.6147
▁flipkart	-11.6152
▁sunanda	-11.6153
▁raibareli	-11.6155
▁bakaayaa	-11.6158
59	-11.6159
▁padaarth	-11.616
95	-11.6161
▁vyavsaayik	-11.6162
▁sworn	-11.6163
arvindkejriwal	-11.6163
▁bhuvneshwar	-11.6165
▁2015-16	-11.6167
hara	-11.6167
▁roof	-11.6167
▁theatre	-11.6169
▁divya	-11.6171
▁mountain	-11.6172
▁op	-11.6178
▁grip	-11.6182
ise	-11.6183
▁asaduddin	-11.6184
▁acted	-11.6185
▁metropolitan	-11.6185
▁transparency	-11.6185
▁giriraj	-11.619
▁bandhan	-11.619
▁kud	-11.6191
▁saiyad	-11.6192
▁yu	-11.6193
▁likes	-11.6193
▁aplod	-11.6195
▁sheena	-11.6195
07	-11.6196
▁sita	-11.6199
▁aaen	-11.62
▁bombs	-11.6201
▁officially	-11.6201
▁hotels	-11.6202
▁paresh	-11.6205
▁kiraye	-11.6206
▁swara	-11.6206
▁matganana	-11.6207
▁dhamaakon	-11.6208
▁gur	-11.6209
▁shoulder	-11.6211
▁survived	-11.6212
▁ras	-11.6213
▁feb	-11.6215
▁lagaam	-11.6215
▁kushal	-11.6218
▁pregnancy	-11.6218
▁katju	-11.6218
▁chaanbin	-11.6219
▁repeated	-11.6219
▁factor	-11.622
▁utaarne	-11.6222
▁judiciary	-11.6225
▁preliminary	-11.6225
▁nakad	-11.6227
salman	-11.6231
▁vaisaa	-11.6232
▁sunita	-11.6232
▁shanghai	-11.6234
gen	-11.6234
▁ghataakar	-11.6235
▁aasthaa	-11.6237
▁kinds	-11.6238
▁antony	-11.6238
▁"(	-11.6238
▁jihad	-11.6239
mb	-11.6241
▁teaser	-11.6243
▁jalandhar	-11.6245
▁stark	-11.6246
▁niyantrit	-11.6248
▁mehmaan	-11.6249
▁dukaanon	-11.625
▁protsaahit	-11.625
▁tomars	-11.6251
▁advertisements	-11.6251
▁akhabaaron	-11.6256
has	-11.6257
▁gujarati	-11.6259
egi	-11.6259
▁contacted	-11.626
38	-11.6261
▁padmavat	-11.6263
▁mau	-11.6263
rt	-11.6264
ayen	-11.6265
▁segment	-11.627
▁cheating	-11.627
▁williams	-11.6271
pulice	-11.6271
▁aseem	-11.6274
▁siddhant	-11.6274
▁nishpaksh	-11.6275
▁defamation	-11.6275
tal	-11.6277
aon	-11.6278
▁utani	-11.6278
▁kidnapped	-11.628
▁method	-11.6283
▁sangakkara	-11.6285
▁harmony	-11.6285
▁bhrasht	-11.6286
500	-11.6287
▁fri	-11.6287
▁gender	-11.6287
▁recognition	-11.6288
▁fruits	-11.6289
▁janadesh	-11.629
▁deepa	-11.6291
▁akash	-11.6294
▁mubarak	-11.6295
▁costs	-11.63
▁inakam	-11.6304
ipl	-11.6304
▁jawahar	-11.6305
▁sung	-11.6307
▁tribunal	-11.6309
▁betiyon	-11.6311
ria	-11.6311
gu	-11.6312
▁cleared	-11.6316
▁smartfones	-11.6316
yadi	-11.6316
▁farah	-11.6319
▁stands	-11.632
▁chi	-11.6321
▁banda	-11.6328
▁vaarshik	-11.633
▁ladenge	-11.6334
▁cognizance	-11.6336
▁hain	-11.6337
44	-11.634
▁122	-11.6343
aan	-11.6347
▁nawab	-11.6348
▁essi	-11.6349
▁unpar	-11.6349
▁feelings	-11.635
▁subjects	-11.635
▁vid	-11.6353
77	-11.6354
aam	-11.6355
▁mukhtar	-11.6357
▁warriors	-11.636
▁muslimon	-11.6363
▁petitions	-11.6363
▁mandeep	-11.6366
▁kaaryakarini	-11.6367
▁depend	-11.637
58	-11.6375
▁checking	-11.6376
▁advisory	-11.638
▁sanyantr	-11.6382
band	-11.6383
nia	-11.6383
▁gatirodh	-11.6384
asti	-11.6386
amen	-11.6388
▁tathyon	-11.6389
▁miller	-11.6389
▁ganatantr	-11.6389
▁vaanijya	-11.6391
▁bhadak	-11.6393
▁controversies	-11.6395
▁jeb	-11.6395
▁pick	-11.6399
▁tham	-11.6399
▁afzal	-11.6399
▁dancer	-11.6401
▁oct	-11.6402
▁fed	-11.6402
▁pratidin	-11.6404
▁eden	-11.6405
▁balaji	-11.6406
▁asthaayee	-11.6406
▁helmet	-11.6407
▁bath	-11.6407
▁kisne	-11.641
▁worse	-11.6411
▁sakhti	-11.6413
▁parformens	-11.6413
▁kas	-11.6415
▁vishwanath	-11.6417
▁drushti	-11.6419
▁patnaik	-11.6421
▁silendar	-11.6422
▁oochaal	-11.6424
-6	-11.6426
▁bandook	-11.6426
▁gangster	-11.6426
▁bachaaya	-11.6426
▁effects	-11.6428
▁prakat	-11.6429
mortem	-11.6429
▁ashraf	-11.6437
▁respected	-11.6438
▁spinners	-11.6444
▁manahani	-11.6448
▁belong	-11.6448
▁easier	-11.6448
▁chhapi	-11.645
▁bhala	-11.645
haalanki	-11.6455
▁superkings	-11.6457
▁talmail	-11.6457
▁celebration	-11.6458
test	-11.6461
▁poet	-11.6463
▁brilliantly	-11.6464
▁saffron	-11.6465
▁kannada	-11.6465
zi	-11.6473
▁baantne	-11.6474
▁jersey	-11.6474
▁respective	-11.6475
▁radha	-11.6477
ship	-11.6478
▁kabiz	-11.6478
sachin	-11.648
▁samudri	-11.6484
▁reporting	-11.6485
▁swatchta	-11.6487
▁taxes	-11.6489
▁estimate	-11.6489
way	-11.649
▁builder	-11.6493
▁1-0	-11.6494
▁jaavdekar	-11.6498
▁sohail	-11.6502
▁prosecution	-11.6503
▁snaan	-11.6503
varshiya	-11.6505
gh	-11.6509
▁shoes	-11.6509
▁willing	-11.6511
▁jone	-11.6512
▁astitv	-11.6517
▁rayudu	-11.6522
▁trained	-11.6525
▁boundary	-11.6538
▁grams	-11.6538
64	-11.6541
▁mazdooron	-11.6543
▁mushkilen	-11.6549
78	-11.6549
▁screens	-11.6549
▁handset	-11.6551
▁conducting	-11.6551
▁flowers	-11.6553
▁jamia	-11.6553
▁tan	-11.6553
▁rock	-11.6553
▁pistol	-11.6554
▁rahakar	-11.6554
▁tap	-11.6555
▁doharaa	-11.6556
ger	-11.6557
▁deshavaasiyon	-11.6558
▁corpse	-11.656
▁solid	-11.6563
▁paison	-11.6564
/2	-11.6566
▁prakaran	-11.6571
▁jade	-11.6573
shri	-11.6578
▁(4.	-11.658
▁aies	-11.6582
▁dub	-11.6582
▁jamini	-11.6584
▁vam	-11.6585
super	-11.6586
01	-11.659
▁udaipur	-11.659
▁debit	-11.659
51	-11.6592
▁alji	-11.6596
▁ties	-11.66
▁rounds	-11.66
▁aug	-11.6601
▁peeta	-11.6601
▁nil	-11.6602
▁aparaadhon	-11.6602
▁ladkaa	-11.6604
▁praise	-11.6604
rajya	-11.6605
▁aansu	-11.6605
▁rupaye	-11.6606
▁kadamon	-11.6606
▁emphasis	-11.6606
▁produce	-11.6608
▁kadar	-11.6609
▁fish	-11.6609
▁sochna	-11.6612
▁tazaa	-11.6615
▁paanchavin	-11.6618
▁iraade	-11.662
▁vijyapti	-11.6623
▁del	-11.6625
▁sidhi	-11.6626
▁shatabdi	-11.6627
mit	-11.6628
▁jedies	-11.6629
had	-11.663
▁nurse	-11.6631
▁tricolor	-11.6631
▁throw	-11.6633
hat	-11.6636
▁tie	-11.6637
▁sangam	-11.6638
bir	-11.6646
▁sushmita	-11.6647
life	-11.6649
▁revolution	-11.665
▁champaran	-11.665
▁bachat	-11.6651
▁closure	-11.6653
▁hafeez	-11.6661
▁alpsankhyakon	-11.6668
▁karishma	-11.667
▁ujjain	-11.667
▁cooperative	-11.667
▁tsunami	-11.6679
▁rides	-11.668
king	-11.6681
52	-11.6682
▁drivers	-11.6686
▁progressive	-11.6687
▁koching	-11.6687
▁raashid	-11.6688
▁temporary	-11.669
laal	-11.6691
maa	-11.6691
▁lila	-11.6692
▁meantime	-11.6692
33	-11.6695
▁attorney	-11.6695
▁tatwon	-11.6697
▁terminal	-11.6697
rao	-11.67
41	-11.6701
▁hasina	-11.6702
06	-11.6703
▁flow	-11.6706
▁adhikrut	-11.6707
▁protsaahan	-11.6708
▁developing	-11.6709
▁colombo	-11.671
ncp	-11.6711
▁diary	-11.6711
▁recommendation	-11.6711
supreme	-11.6711
▁vaani	-11.6714
meraa	-11.6715
▁ashleel	-11.6716
▁aalaa	-11.6717
▁siddiki	-11.6717
▁collect	-11.6718
wo	-11.672
▁lenden	-11.672
▁http	-11.6722
▁taylor	-11.6723
▁wonderful	-11.6723
▁meley	-11.6723
▁2012-13	-11.6724
▁ordinary	-11.6725
madhya	-11.6725
▁vidhyalay	-11.6729
▁vasant	-11.673
af	-11.6731
▁aura	-11.6732
▁shikaayatein	-11.6734
over	-11.6735
ive	-11.6738
net	-11.6743
▁salim	-11.6743
ns	-11.6743
▁banaaenge	-11.6744
▁sudhaaron	-11.6749
▁bhashaaon	-11.6757
▁hosts	-11.6757
▁vip	-11.6757
▁arya	-11.6759
▁nam	-11.676
▁dhaatu	-11.6763
▁kathmandu	-11.6763
▁upsc	-11.6766
▁yojanaayen	-11.6774
▁jaankaar	-11.6774
▁siforeeshon	-11.6775
▁illegally	-11.6785
▁gau	-11.6786
▁akshar	-11.6786
▁rajouri	-11.6786
▁utpann	-11.6786
▁fever	-11.6787
sal	-11.6789
▁archana	-11.679
▁prevention	-11.6791
▁brahman	-11.6792
▁15,000	-11.6793
▁upabhoktaaon	-11.6795
▁dedicated	-11.6795
▁ayushmaan	-11.6797
▁(2)	-11.6798
▁saving	-11.6798
▁sudhaarney	-11.6804
▁jacket	-11.6805
ent	-11.6805
▁ikbaal	-11.6812
▁killer	-11.6813
▁inaugurated	-11.6813
▁coaching	-11.6816
den	-11.6817
▁chargers	-11.6818
▁maratha	-11.6818
ine	-11.6823
▁dhaaraon	-11.6823
▁po	-11.6823
▁dalai	-11.6828
▁jinase	-11.6829
▁mukhyamantriyon	-11.6831
▁rohingya	-11.6833
▁jiya	-11.6834
▁begusarai	-11.6839
▁maintained	-11.6841
▁bhavy	-11.6841
▁finger	-11.6842
adi	-11.6843
lan	-11.6844
▁expelled	-11.6845
ster	-11.6852
▁106	-11.6852
▁radhe	-11.6853
▁confessed	-11.6854
▁uae	-11.6855
▁sahu	-11.6856
▁wild	-11.6859
▁madhuri	-11.686
▁kisan	-11.6862
▁tareekon	-11.6862
lok	-11.6863
▁advanced	-11.6864
▁pement	-11.6865
ey	-11.6865
kapil	-11.6865
▁palatwaar	-11.6866
▁sochate	-11.6866
▁eliminated	-11.6867
▁bimariyon	-11.6868
▁sabakuch	-11.6868
▁bo	-11.6871
▁fix	-11.6871
▁paes	-11.6873
▁patnayak	-11.6874
▁112	-11.688
▁vietnam	-11.6881
▁discrimination	-11.6883
▁pulses	-11.6885
▁shyam	-11.6887
▁daavon	-11.6888
▁defending	-11.6889
▁pratyaashiyon	-11.6891
▁virodhiyon	-11.6893
▁101	-11.6894
▁maanati	-11.6897
▁positions	-11.6898
▁jhalak	-11.6899
▁badhegaa	-11.6899
▁maulana	-11.6899
▁taar	-11.6903
▁bell	-11.6904
▁rifles	-11.6905
▁reception	-11.6907
▁surjewala	-11.6907
▁bhent	-11.6907
▁4,000	-11.6911
▁agenciyaan	-11.6913
▁credibility	-11.6913
▁eligibility	-11.6922
▁climbed	-11.6925
▁convenor	-11.6926
▁lamba	-11.6927
▁muhar	-11.6928
▁santulan	-11.6928
▁fitures	-11.693
▁viraam	-11.693
▁dressing	-11.6931
▁validity	-11.6933
▁naatak	-11.6933
ok	-11.6933
▁khaasi	-11.6934
▁download	-11.6934
▁shavon	-11.6936
▁tank	-11.6936
▁kad	-11.6937
jun	-11.6939
▁jadaa	-11.6939
▁turning	-11.6939
▁jasusi	-11.6941
enesai	-11.6944
▁replied	-11.6944
▁slowly	-11.6946
▁pop	-11.6947
▁crops	-11.695
▁logo	-11.695
▁damdaar	-11.6951
▁haji	-11.6952
▁halke	-11.6953
▁shane	-11.6954
▁assessment	-11.6956
▁irregularities	-11.6961
▁updates	-11.6962
▁2011-12	-11.6962
▁imports	-11.6963
2018	-11.6965
▁ukraine	-11.6968
▁aadat	-11.6969
66	-11.697
▁os	-11.6973
▁bsnl	-11.6974
▁kharge	-11.6976
▁thikaane	-11.6976
▁closer	-11.6977
▁creation	-11.6979
▁demonstrations	-11.6983
▁jaankariyaan	-11.6984
▁lover	-11.6985
▁dabl	-11.6985
ae	-11.6986
ega	-11.6986
▁eventually	-11.6987
▁saleem	-11.6994
▁revenge	-11.6995
▁sibiesai	-11.6996
02	-11.6999
▁import	-11.7
▁flagship	-11.7001
▁103	-11.7002
▁guys	-11.7004
▁aria	-11.7013
▁leela	-11.7014
▁vitamin	-11.7015
▁divangat	-11.7017
▁patharav	-11.7017
▁moulana	-11.7017
▁realized	-11.7017
▁shatrughna	-11.7019
yaa	-11.702
▁dhamaakaa	-11.7021
▁dhaancha	-11.7024
▁impose	-11.7025
▁saket	-11.7027
▁sweet	-11.7028
▁encourage	-11.7029
▁assault	-11.7031
▁majaa	-11.7032
samay	-11.7034
▁naukariyaan	-11.7034
▁prithviraj	-11.7038
▁tremors	-11.7042
▁cement	-11.7043
▁anupaat	-11.7047
▁esaspi	-11.7047
▁gross	-11.705
▁privacy	-11.7051
▁doors	-11.7054
▁aroda	-11.7059
▁valid	-11.7059
▁jaraa	-11.706
▁124	-11.7061
▁calendar	-11.7061
▁nitigat	-11.7063
▁guests	-11.7063
▁bula	-11.7064
▁powers	-11.7068
▁aatma	-11.7068
naabad	-11.7068
ler	-11.707
▁publicly	-11.7071
▁meets	-11.7075
▁appreciated	-11.7077
akshaykumar	-11.7077
taa	-11.7079
▁negotiations	-11.708
rrb	-11.7081
▁immergency	-11.7082
ao	-11.7083
▁khar	-11.7083
▁126	-11.7083
▁ondec	-11.7083
▁dukhad	-11.7084
▁tale	-11.7086
▁sipaahi	-11.7089
▁sindh	-11.709
ij	-11.7091
▁schuli	-11.7093
about	-11.7094
98	-11.71
▁feat	-11.71
▁jabalpur	-11.7103
▁khaasaa	-11.7104
▁misaal	-11.7105
▁aamane	-11.7105
ini	-11.7107
▁ghanta	-11.711
▁dhamal	-11.711
▁azmi	-11.7111
▁dephence	-11.7111
saal	-11.7113
▁row	-11.7114
fc	-11.7116
▁sharmnaak	-11.7118
▁dushyant	-11.7121
▁ghere	-11.7125
▁cool	-11.7134
▁declining	-11.7136
▁panjikaran	-11.7136
▁tablet	-11.7138
▁mysore	-11.7139
▁abvp	-11.7147
▁jaankaron	-11.7148
▁greece	-11.7149
▁yug	-11.7149
▁associate	-11.715
▁pattern	-11.7152
▁2022	-11.7153
▁irrigation	-11.7154
▁thand	-11.7155
ash	-11.7158
▁gardens	-11.7161
▁berogari	-11.7161
▁ideas	-11.7162
class	-11.7165
▁vyas	-11.7166
▁goswami	-11.7166
ataa	-11.7167
▁unnao	-11.7171
▁hastiyon	-11.7172
▁suman	-11.7175
▁infiltration	-11.7175
▁censor	-11.7177
▁chaowkee	-11.7177
▁device	-11.7178
▁snapdragon	-11.718
▁humanity	-11.7181
▁revelations	-11.7182
▁2012.	-11.7186
▁crashed	-11.7187
▁qaeda	-11.7191
▁fled	-11.7192
▁booked	-11.7193
ada	-11.7194
▁ritair	-11.7197
▁abtak	-11.7197
ag	-11.7198
▁thama	-11.7199
▁purview	-11.72
▁successfully	-11.7202
▁saarc	-11.7204
▁samples	-11.7206
▁dirty	-11.721
▁arises	-11.7211
▁tees	-11.7212
▁yogesh	-11.7214
▁pahan	-11.7214
▁sangakaara	-11.7215
▁mughal	-11.7215
▁hostage	-11.7218
▁whoever	-11.7219
▁winds	-11.7221
▁lara	-11.7222
▁pit	-11.7224
▁kumaraswami	-11.7229
▁allowing	-11.7229
▁heavily	-11.7229
▁hashim	-11.723
▁boom	-11.7231
▁quarrel	-11.7237
▁williamson	-11.7237
▁roti	-11.7238
▁antni	-11.7238
▁vanchit	-11.7239
▁peet	-11.724
ion	-11.724
▁bagh	-11.7241
▁sasta	-11.7241
▁dijipi	-11.7243
▁ishrat	-11.7246
nai	-11.7247
▁halki	-11.7248
▁strot	-11.7249
▁kasab	-11.7256
▁cooperate	-11.7257
,000	-11.7257
▁chahen	-11.726
▁echdi	-11.7262
▁wind	-11.7264
▁tang	-11.7265
▁converted	-11.7269
▁routes	-11.7271
red	-11.7274
▁2019)	-11.7275
mohammed	-11.7276
ary	-11.7277
▁nasir	-11.7279
▁sunni	-11.7282
▁exactly	-11.7285
▁trap	-11.7286
▁mehul	-11.7286
ua	-11.7291
west	-11.7292
▁focused	-11.7292
▁bahanon	-11.7292
▁bathroom	-11.7294
▁sten	-11.7296
▁rent	-11.7296
▁emerging	-11.7306
▁sinchai	-11.7306
▁lovers	-11.7307
kat	-11.7308
▁chasing	-11.7309
▁niamak	-11.731
▁besd	-11.7311
▁ummiido	-11.7312
▁karaari	-11.7314
00	-11.7315
▁equipped	-11.7316
▁beef	-11.7321
▁nato	-11.7325
▁jaswant	-11.7326
▁oberoi	-11.7327
▁sahaj	-11.733
▁mujahideen	-11.733
▁salute	-11.733
▁dikhi	-11.7332
▁1962	-11.7333
▁certainly	-11.7333
▁bumrah	-11.7334
▁dogs	-11.7335
patr	-11.734
▁mahangi	-11.7341
93	-11.7342
▁cited	-11.7344
▁kapadon	-11.7347
▁saddened	-11.7349
▁analysis	-11.735
▁hafton	-11.735
mr	-11.7351
▁nathan	-11.7352
▁surrender	-11.7352
▁wheat	-11.7353
▁residential	-11.7353
▁hails	-11.7354
▁attached	-11.7359
▁lathicharge	-11.736
▁kartarpur	-11.7361
lon	-11.7361
▁praarambhik	-11.7361
▁teenager	-11.7362
▁kiwi	-11.7363
▁lakhvi	-11.7364
▁allegation	-11.7365
▁arising	-11.7366
▁mukhtaar	-11.737
cl	-11.7371
▁hussey	-11.7374
yi	-11.7375
op	-11.7375
▁kathua	-11.7376
▁samajhataa	-11.7377
▁kaali	-11.7377
▁yellow	-11.7382
▁dharne	-11.7383
▁snowfall	-11.7385
▁hack	-11.7391
▁che	-11.7391
ade	-11.7392
▁nadiyon	-11.7392
▁amrapali	-11.7393
oo	-11.7394
▁ati	-11.7395
▁maukon	-11.7397
▁campan	-11.7398
▁gil	-11.7398
▁manage	-11.74
▁bmc	-11.74
▁suchakaankon	-11.74
▁chalaate	-11.7401
▁gather	-11.7403
▁sentiments	-11.7406
upi	-11.7407
▁venugopal	-11.741
▁jeetna	-11.7415
▁cheaper	-11.7416
▁jamiya	-11.7417
▁feedback	-11.7418
▁rishtedaaron	-11.7421
▁drow	-11.7423
▁jataa	-11.7426
▁raakhi	-11.7427
▁xinhua	-11.7429
03	-11.743
▁hisar	-11.7431
shiv	-11.7432
▁saunpane	-11.7434
▁gilani	-11.7435
▁peshewar	-11.7436
▁naksal	-11.7441
▁legislators	-11.7442
od	-11.7443
▁meera	-11.7445
▁ranaut	-11.7445
▁gavaahon	-11.7449
▁baap	-11.7452
▁automatic	-11.7453
▁honda	-11.7455
▁dekhtaa	-11.7455
▁lock	-11.7459
▁baalo	-11.7462
▁danpati	-11.7462
▁sakal	-11.7462
▁114	-11.7463
pani	-11.7464
▁machuaaron	-11.7466
▁sacrifice	-11.7466
▁munafa	-11.7468
▁apps	-11.747
▁akram	-11.7471
▁gayatri	-11.7471
▁kaul	-11.7473
▁actions	-11.7475
▁locked	-11.7476
sen	-11.7477
▁stream	-11.7478
▁bhavuk	-11.748
82	-11.7481
,990	-11.7483
▁forensic	-11.7484
▁produsar	-11.7484
▁shooter	-11.7484
▁turkey	-11.7486
▁19.	-11.7489
▁bride	-11.7499
▁values	-11.7499
▁berthde	-11.7503
▁punarvichaar	-11.7505
▁emphasized	-11.7505
▁patron	-11.7508
▁basti	-11.7509
▁navambar	-11.7511
▁abuse	-11.7511
5.	-11.7514
▁horse	-11.7516
▁prasaarit	-11.7517
▁chaatraon	-11.7518
▁encouraged	-11.7522
▁prosperity	-11.7523
iamsrk	-11.7523
▁brown	-11.7526
▁nakvi	-11.7529
▁obtained	-11.7529
vyavastha	-11.7534
▁saafe	-11.7534
▁paardarshita	-11.7536
▁2013.	-11.7538
▁bajrang	-11.7541
▁sep	-11.7542
▁sthirataa	-11.7544
▁girakar	-11.7546
▁curfew	-11.7547
▁jimmaa	-11.7547
▁kali	-11.7547
▁jhuthe	-11.7548
▁mare	-11.7549
▁malala	-11.755
▁shootout	-11.7554
▁charitra	-11.7555
▁clerk	-11.7555
▁sidi	-11.7559
▁111	-11.7564
▁implementing	-11.7565
▁prakruti	-11.7568
▁sookhe	-11.7568
mer	-11.7574
▁khand	-11.7575
▁suv	-11.758
▁ola	-11.758
▁moral	-11.7581
▁poison	-11.7582
▁ramgopal	-11.7584
sibiai	-11.7585
▁suzuki	-11.7586
▁paariwarik	-11.7588
tak	-11.7589
▁laai	-11.7589
▁kotla	-11.7589
▁chautala	-11.759
▁saints	-11.7595
▁gurdaspur	-11.7595
▁demise	-11.7595
▁issuing	-11.7598
▁deteriorated	-11.7599
▁umpire	-11.76
▁arpit	-11.7601
▁eyeing	-11.7602
ous	-11.7603
▁hurry	-11.7604
▁sasikala	-11.7606
▁independents	-11.7608
▁pichde	-11.7608
gaon	-11.7609
▁milan	-11.7611
▁pahanane	-11.7613
chunaav	-11.7615
100	-11.7618
67	-11.7618
47	-11.7619
upa	-11.7619
▁comfortable	-11.7624
▁marshall	-11.7624
nitish	-11.7624
▁anyway	-11.7628
hindu	-11.7631
▁retire	-11.7633
▁kandhe	-11.7635
85	-11.7637
cricket	-11.7637
▁najdiki	-11.7638
▁baithkon	-11.7639
▁dosha	-11.764
▁900	-11.7641
▁jana	-11.7641
▁misa	-11.7641
▁jehar	-11.7642
▁swat	-11.7643
▁badhegi	-11.7647
▁pulled	-11.7649
▁knock	-11.7649
▁vidhyaarthiyon	-11.765
▁martyr	-11.765
▁sampattiyon	-11.7651
▁godse	-11.7652
▁flop	-11.7653
▁bhay	-11.7654
▁inase	-11.7656
▁athlete	-11.7657
▁nyaaypalika	-11.7658
▁ankhen	-11.7658
▁deliver	-11.7661
▁ubar	-11.7662
▁giriraaj	-11.7662
▁7:	-11.7663
dia	-11.7664
▁shriram	-11.7665
sat	-11.7665
▁signs	-11.7671
▁funeral	-11.7671
▁jorge	-11.7672
▁tevar	-11.7673
▁kabool	-11.7675
▁119	-11.7678
▁rafael	-11.7678
▁isapar	-11.7679
▁ashvini	-11.7679
▁ganit	-11.768
aye	-11.7683
▁auspicious	-11.7684
▁somehow	-11.7684
▁haive	-11.7686
▁apanaaya	-11.7686
▁khadge	-11.7687
▁talwar	-11.7688
▁garima	-11.769
▁chalan	-11.7691
maha	-11.7692
▁paaegi	-11.7693
83	-11.7696
▁farhan	-11.7701
▁aade	-11.7705
▁thoughts	-11.7707
▁illness	-11.7708
▁2018,	-11.7708
▁30,000	-11.771
▁morkel	-11.7711
▁nazarandaaj	-11.7711
▁introduce	-11.7712
▁sarpanch	-11.7714
▁vaishali	-11.7714
▁scooter	-11.7714
▁bharose	-11.7715
▁mor	-11.7715
▁takalif	-11.7716
▁bahishkaar	-11.7717
▁departure	-11.7717
▁stump	-11.772
▁emi	-11.7727
▁bartaav	-11.7736
▁reacted	-11.7737
▁crease	-11.7745
▁continuing	-11.7746
▁duo	-11.7747
▁dadri	-11.7756
▁upyukt	-11.7756
▁boost	-11.7757
▁asana	-11.7757
▁reacting	-11.7759
yes	-11.7763
▁relative	-11.7765
▁rapat	-11.7766
▁jhandi	-11.7767
▁apnaane	-11.7767
▁oppo	-11.7768
▁agsit	-11.777
▁headley	-11.7774
▁justin	-11.7774
▁nationalism	-11.7774
▁shiromani	-11.7776
▁convince	-11.7777
▁holder	-11.7779
▁summons	-11.7779
▁haraane	-11.778
▁essential	-11.7781
three	-11.7781
▁kahenge	-11.7785
▁colector	-11.7787
▁psta	-11.7788
▁qualified	-11.7789
▁experienced	-11.7794
▁conclusion	-11.7794
▁scientist	-11.7796
▁dange	-11.78
▁dekhbhaal	-11.7801
▁arranged	-11.7801
▁1988	-11.7802
▁knowing	-11.7803
▁misbah	-11.7809
▁uparashtrapati	-11.7809
▁bikaner	-11.781
▁135	-11.7812
▁jung	-11.7812
▁portugal	-11.7813
▁bik	-11.7814
kot	-11.7814
▁ulat	-11.7816
▁laugh	-11.7818
biggboss	-11.7819
▁bulaane	-11.7823
▁pitiai	-11.7823
dangal	-11.7825
▁madadgaar	-11.7826
▁shikayaton	-11.7826
▁shape	-11.7832
▁badhiya	-11.7837
▁sosayadi	-11.7838
▁kaamon	-11.7838
▁pipuls	-11.7839
▁deliberately	-11.7841
▁daakhila	-11.7843
▁abhinav	-11.7843
▁organize	-11.7844
▁hedli	-11.7845
▁attacker	-11.7845
▁ngt	-11.7846
▁fault	-11.7846
▁nirikshan	-11.7847
▁damakal	-11.785
▁rhythm	-11.7851
▁fouj	-11.7853
▁palace	-11.7859
▁holy	-11.7859
terrorism	-11.7859
▁tabaahi	-11.786
ny	-11.7861
▁eligible	-11.7863
▁colonel	-11.7863
▁adaalaton	-11.7863
▁aaron	-11.7864
▁arrangement	-11.7866
▁kasaab	-11.7868
▁hindutva	-11.7868
googletag	-11.7869
▁daalkar	-11.7871
▁sakegi	-11.7874
▁chodi	-11.7876
▁nowadays	-11.7877
▁biopic	-11.7877
▁khwaja	-11.7878
▁broadcast	-11.7881
86	-11.7881
▁fundamental	-11.7882
▁jaanboojhkar	-11.7884
▁halafname	-11.7884
▁divaais	-11.7888
▁engineers	-11.7888
▁garbhvatee	-11.7888
▁systems	-11.789
▁vaataavaran	-11.7891
▁resentment	-11.7894
▁radhika	-11.7894
▁chain	-11.7896
▁paryatakon	-11.7897
▁pahaluon	-11.79
veer	-11.7901
▁estimates	-11.7901
▁burn	-11.7901
▁clinics	-11.7903
vy	-11.7904
▁vijayi	-11.7907
▁nsg	-11.7908
ring	-11.7908
▁naitik	-11.7909
▁pushed	-11.7911
▁moin	-11.7914
hamaari	-11.7915
▁chaara	-11.7918
▁munna	-11.7918
▁sharton	-11.792
▁pocket	-11.792
▁wrestling	-11.7922
68	-11.7923
▁loya	-11.7928
▁dhananjay	-11.7928
▁phydemand	-11.7928
▁jhansi	-11.7928
▁nirmaataaon	-11.7929
▁hatane	-11.793
▁agreements	-11.7931
▁maury	-11.7931
▁saadhaaran	-11.7932
▁bora	-11.7937
▁170	-11.7938
▁ian	-11.794
cy	-11.794
▁judane	-11.7941
▁shashikala	-11.7943
▁attempts	-11.7944
▁pun	-11.7947
▁gaali	-11.7947
▁bachi	-11.7948
▁vande	-11.7949
▁shoaib	-11.795
▁dabang	-11.7952
▁reliyon	-11.7954
▁ajeeb	-11.7954
89	-11.7954
▁kashi	-11.7956
pro	-11.7956
▁petersan	-11.7957
▁didn	-11.796
▁connecting	-11.796
cr	-11.7961
▁atyaachaar	-11.7961
▁simat	-11.7962
▁length	-11.7963
▁alleging	-11.7966
▁sentiment	-11.797
▁maadhuri	-11.7971
▁baaji	-11.7971
▁113	-11.7972
▁rifle	-11.7972
▁nick	-11.7973
▁abducted	-11.7975
▁forgotten	-11.7975
▁isiaisiai	-11.7977
▁2014-15	-11.7981
▁angel	-11.7981
▁tagore	-11.7982
▁pahari	-11.7982
▁applying	-11.7984
▁vidarbha	-11.7989
ela	-11.799
▁atithi	-11.7991
▁gata	-11.7992
▁invested	-11.7993
some	-11.7995
▁dealing	-11.7997
▁1-1	-11.8
pr	-11.8009
▁severely	-11.8014
▁beshak	-11.8015
▁mujffarpur	-11.8015
87	-11.8016
▁chaaval	-11.8016
▁ikaayiyon	-11.8016
▁drunk	-11.8016
▁operators	-11.8017
▁ration	-11.8018
▁satyapal	-11.802
▁ampire	-11.8023
▁chaos	-11.8023
▁sami	-11.8026
▁salt	-11.8026
deepikapadukone	-11.8029
▁tonight	-11.8033
▁gates	-11.8034
dhoni	-11.8034
▁taiyaariyaan	-11.8035
▁sukhbir	-11.8039
▁masalan	-11.8043
▁saahas	-11.8045
▁defended	-11.8046
▁fatehpur	-11.8046
rang	-11.8047
▁explosive	-11.8047
▁drishy	-11.8048
▁maovadiyon	-11.8048
▁sydney	-11.805
▁appearance	-11.805
gandhi	-11.805
▁rashtravaadi	-11.8051
▁intervention	-11.8051
▁banner	-11.8052
car	-11.8052
az	-11.8053
▁kathor	-11.8053
▁dare	-11.8054
▁fond	-11.8055
▁kharidi	-11.8056
-7	-11.8057
▁answered	-11.8057
▁dikhti	-11.8057
▁knife	-11.8057
▁chalaae	-11.806
▁raza	-11.8061
▁malbe	-11.8063
▁rashan	-11.8065
▁chaal	-11.8065
mani	-11.8065
badi	-11.8066
▁shifted	-11.8067
▁moolyankan	-11.8067
▁upayon	-11.8068
▁ballebaaz	-11.8071
▁merger	-11.8071
▁rasoi	-11.8072
▁garlfriend	-11.8072
▁shumaar	-11.8073
▁pok	-11.8073
▁fatkaar	-11.8074
▁(19	-11.8076
▁deccan	-11.8076
▁friendly	-11.8077
▁gu	-11.8081
▁afsos	-11.8081
▁raghuram	-11.8081
ale	-11.8082
▁casualties	-11.8083
▁snow	-11.8087
▁sabooton	-11.8088
▁1975	-11.8089
▁nirdosh	-11.8089
▁rokna	-11.8094
▁kanoonon	-11.8094
▁od	-11.8095
▁4000	-11.8097
▁satarkta	-11.81
▁tidipi	-11.8103
▁dhakka	-11.8103
▁peshey	-11.8104
▁apaat	-11.8104
▁cows	-11.8105
▁romaanchak	-11.8105
▁panch	-11.8105
▁specific	-11.8105
bahut	-11.8107
▁alka	-11.8109
▁bure	-11.8109
▁communications	-11.811
▁smile	-11.8111
▁ministries	-11.8112
▁chalegi	-11.8112
▁bataaen	-11.8113
▁anaaj	-11.8113
▁cigarette	-11.8116
▁bies	-11.8119
▁biit	-11.8121
▁routine	-11.8124
page	-11.8125
▁propaganda	-11.8126
▁baghel	-11.8127
▁nishad	-11.8128
▁sattadhari	-11.8129
▁adani	-11.8129
▁ta	-11.813
▁tool	-11.8132
priyankachopra	-11.8134
▁consideration	-11.8135
▁450	-11.8136
▁rangers	-11.8138
▁ramvilas	-11.8139
▁indigo	-11.814
▁pannu	-11.8142
▁oficial	-11.8143
▁adjacent	-11.8144
▁actresses	-11.8147
▁krij	-11.8147
▁tabah	-11.8148
▁allowance	-11.8148
▁anandiben	-11.8149
▁nyotaa	-11.8151
▁vibhaajan	-11.8152
▁aarushi	-11.8152
▁badalakar	-11.8153
▁ju	-11.8153
▁bhandar	-11.8154
▁jaruraton	-11.8154
▁accepting	-11.8156
▁aditi	-11.8156
▁saurashtra	-11.8158
▁arshad	-11.8158
▁chautaala	-11.816
▁ravaiye	-11.816
▁andekhi	-11.8163
▁shouted	-11.8163
▁1950	-11.8164
▁aagaaj	-11.8172
▁forever	-11.8172
sara	-11.8174
▁debris	-11.8179
▁baag	-11.818
▁fa	-11.8181
▁anjali	-11.8187
sanjay	-11.8188
▁phek	-11.819
▁sharmila	-11.8192
▁dcp	-11.8195
▁habit	-11.8196
▁sthalon	-11.8196
▁vaais	-11.8197
▁yang	-11.8198
▁tikhi	-11.8202
▁pdtview	-11.8202
▁sajjan	-11.8207
▁som	-11.8207
▁hills	-11.8208
sultan	-11.8212
▁bindra	-11.8213
▁misr	-11.8213
▁karfu	-11.8215
▁sieji	-11.8217
▁taqatvar	-11.8217
raja	-11.8218
▁chicago	-11.8219
▁gulab	-11.8221
ncr	-11.8222
▁banaata	-11.8222
▁twist	-11.8223
▁socialist	-11.8225
▁blad	-11.8226
▁grid	-11.8226
▁insisted	-11.8228
()	-11.8228
▁commandos	-11.8229
tech	-11.8233
ble	-11.8234
▁accordingly	-11.8234
▁filling	-11.8235
▁nalanda	-11.8236
▁sticks	-11.8237
▁yashwant	-11.8237
▁mohalla	-11.8238
▁109	-11.8239
▁brings	-11.8241
▁06.	-11.8243
jee	-11.8253
▁1947	-11.8254
▁barf	-11.8256
▁ghadi	-11.8256
-17	-11.8259
▁exams	-11.8261
aur	-11.8262
▁masters	-11.8262
▁vinirmaan	-11.8263
▁investigations	-11.8263
▁surveillance	-11.8263
▁chunane	-11.8263
▁guide	-11.8268
▁memories	-11.8271
▁mejabani	-11.8272
▁gaiyrkanoonee	-11.8275
▁halafanama	-11.8276
▁jama	-11.8277
▁karency	-11.828
▁denmark	-11.828
▁apr	-11.828
▁cyna	-11.8283
▁dak	-11.8285
tic	-11.8287
▁likhte	-11.8287
▁jk	-11.8288
▁celebs	-11.8291
▁discussing	-11.8297
▁pratispardhaa	-11.8299
▁massive	-11.8302
▁martyrs	-11.8303
▁jatiyon	-11.8305
▁atrocities	-11.8306
▁penal	-11.8308
▁tries	-11.8308
▁max	-11.8309
▁buland	-11.831
▁nirodhak	-11.8314
▁forests	-11.8316
▁tears	-11.8316
▁probe	-11.8318
▁writes	-11.832
▁uttam	-11.8322
▁gyaat	-11.8323
▁helps	-11.8329
▁mirror	-11.833
avi	-11.834
▁shabana	-11.8342
▁richard	-11.8342
▁megapixel	-11.8343
▁jagadish	-11.8345
▁ib	-11.8345
▁surround	-11.8347
▁unemployed	-11.8347
purna	-11.8347
76	-11.8349
▁mann	-11.8353
▁121	-11.8353
▁raping	-11.8354
▁yechury	-11.8357
▁attractive	-11.8357
▁rajaneta	-11.8357
▁aalekh	-11.8358
▁deposits	-11.8359
▁lbw	-11.8364
▁jaldbaaji	-11.8364
▁tone	-11.8366
▁scientific	-11.8366
▁butler	-11.8367
ej	-11.8371
▁sealed	-11.8372
▁compromise	-11.8375
▁datta	-11.8375
▁slight	-11.8376
",	-11.8379
▁kargar	-11.8386
▁aziz	-11.8387
▁poonam	-11.8389
▁jayawardene	-11.8394
anna	-11.8394
▁casting	-11.8397
▁nav	-11.8397
▁byora	-11.8398
▁strikes	-11.84
▁prabhaar	-11.84
▁bekaar	-11.84
▁chatkaaye	-11.84
▁arose	-11.8401
▁kise	-11.8404
▁nanak	-11.8405
▁jaadu	-11.8406
▁dust	-11.8406
▁constructed	-11.8407
gam	-11.8409
▁switzerland	-11.8409
▁stores	-11.8409
▁allotted	-11.841
▁phases	-11.8413
▁kitaaben	-11.8414
▁230	-11.8418
▁install	-11.8422
laa	-11.8424
▁coastal	-11.8425
ghat	-11.8425
▁1986	-11.8425
▁rivyuu	-11.8425
▁taiwan	-11.8426
▁jasprit	-11.8426
▁chadhakar	-11.8429
▁twachaa	-11.8429
▁chitra	-11.8431
▁complain	-11.8431
91	-11.8433
▁ssc	-11.8434
▁riot	-11.8435
▁hriday	-11.8436
▁09.	-11.8436
▁adopting	-11.8436
▁todphod	-11.8436
▁ugc	-11.8437
▁mahotsav	-11.8439
▁rooms	-11.8439
▁tatv	-11.844
▁wholesale	-11.8443
▁vigilance	-11.8444
▁ramayana	-11.8444
▁talented	-11.8449
▁hindutv	-11.8449
▁helpful	-11.845
▁rifl	-11.845
▁statistics	-11.8452
▁abhiyojan	-11.8453
▁eliminate	-11.8457
▁175	-11.8457
('	-11.8458
▁aathven	-11.846
cc	-11.846
▁restrictions	-11.8462
▁greatest	-11.8464
▁census	-11.8466
▁socity	-11.847
▁bhakt	-11.8471
▁withdrew	-11.8472
▁vidaai	-11.8474
▁tumhen	-11.8475
▁praaroop	-11.8476
▁supervision	-11.8476
▁udyogon	-11.8477
▁darbar	-11.8477
chin	-11.8481
▁monthly	-11.8481
▁outstanding	-11.8484
▁counsel	-11.8491
▁donations	-11.8491
▁atakalein	-11.8492
▁jhanda	-11.8493
▁scams	-11.8496
▁acquired	-11.8496
61	-11.8497
▁kaksh	-11.8497
▁adhivaktaa	-11.8499
▁bhel	-11.85
▁custom	-11.85
▁unhappy	-11.85
▁hc	-11.8501
▁surface	-11.8501
▁monitored	-11.8501
▁kayaas	-11.8501
▁nervous	-11.8505
▁bakhubi	-11.8505
▁atms	-11.8509
▁andruni	-11.8509
-11	-11.8509
▁jaye	-11.8511
▁andrew	-11.8512
▁terrible	-11.8513
▁perfect	-11.8514
▁flipcart	-11.8514
these	-11.8515
who	-11.8516
▁apatkaal	-11.8517
▁seekhney	-11.8519
▁samaapan	-11.8519
▁sandhi	-11.8519
▁blocks	-11.852
▁unnav	-11.8522
▁prashansak	-11.8523
▁patanjali	-11.8524
▁mangeshkar	-11.8525
▁aamadani	-11.8526
▁faruk	-11.8527
▁akraman	-11.853
▁befitting	-11.8532
▁reiterated	-11.8532
▁causes	-11.8535
▁weakness	-11.8535
▁banegi	-11.854
▁lander	-11.8541
vimarsh	-11.8542
▁solanki	-11.8542
▁poland	-11.8542
cho	-11.8542
▁rahengi	-11.8545
▁protocol	-11.8545
▁sameekaran	-11.8545
▁chairperson	-11.8545
▁jaal	-11.8545
asi	-11.8549
▁chances	-11.8554
▁aruna	-11.8554
▁jackson	-11.8555
▁charles	-11.8555
koi	-11.8557
▁jivit	-11.8557
▁cha	-11.8558
▁mig	-11.8558
▁danga	-11.8559
ein	-11.8559
▁kafile	-11.8562
wedding	-11.8565
▁ignore	-11.8565
▁agni	-11.8566
▁padhate	-11.8567
▁molestation	-11.8569
▁lad	-11.8569
why	-11.8569
▁politically	-11.8569
▁sikhs	-11.8571
▁mahavir	-11.8572
▁declaration	-11.8572
▁bow	-11.8573
▁theory	-11.8575
▁regulatory	-11.8576
▁gumraah	-11.8577
▁stronger	-11.8578
▁sargana	-11.8579
▁marathon	-11.858
▁loud	-11.8581
▁girish	-11.8583
ks	-11.8585
▁tribals	-11.8585
▁dube	-11.8586
▁dengi	-11.8586
▁lion	-11.8587
▁axis	-11.8589
▁srijan	-11.859
▁sensational	-11.859
rape	-11.8591
▁nirvaachit	-11.8595
▁worshiped	-11.8597
▁jeene	-11.8598
▁gahare	-11.8599
▁collision	-11.86
▁dating	-11.8601
▁gayak	-11.8604
▁vacancies	-11.8605
east	-11.8606
▁hashmi	-11.8606
▁chalanaa	-11.8608
ina	-11.8609
aron	-11.8613
▁ongc	-11.8614
▁kenya	-11.8617
▁madhur	-11.8617
▁sevanivrutt	-11.8619
fan	-11.8621
▁chatterjee	-11.8626
▁mahanagar	-11.8626
▁sum	-11.8628
rashtriya	-11.8629
ava	-11.8631
▁jhande	-11.8632
corruption	-11.8632
▁protein	-11.8632
▁mahela	-11.8633
▁manchester	-11.8635
▁topped	-11.8636
▁branches	-11.8636
▁negi	-11.8637
▁afgaan	-11.8638
australia	-11.8639
▁dismissal	-11.864
▁novel	-11.864
▁nir	-11.864
bisai	-11.864
▁sweep	-11.8643
▁stri	-11.8643
▁athurity	-11.8646
▁karaara	-11.8646
▁interfere	-11.8647
▁masik	-11.8648
▁epa	-11.8649
▁kundra	-11.865
▁selectors	-11.8653
arm	-11.8653
▁roger	-11.8653
io	-11.8654
▁pahunchate	-11.8657
▁2013-14	-11.8658
▁gps	-11.8658
74	-11.8659
▁impossible	-11.8659
▁1987	-11.8662
▁babar	-11.8664
▁karmi	-11.8664
▁piemo	-11.8665
▁bhejkar	-11.8665
▁subscribe	-11.8666
▁vidyut	-11.8667
▁militant	-11.8667
▁forms	-11.867
▁ambati	-11.8671
▁laakar	-11.8671
can	-11.8672
▁confrontation	-11.8673
▁gaharaai	-11.8675
▁pie	-11.8675
▁violations	-11.8676
▁mahange	-11.8676
▁nepali	-11.8679
▁dharmanirpeksh	-11.8684
▁dukaane	-11.8684
▁mount	-11.8684
chandra	-11.8685
▁raghav	-11.8686
▁chartered	-11.8687
▁chotil	-11.869
how	-11.8692
▁ausatan	-11.8692
▁kairana	-11.8694
▁dabadabaa	-11.8696
▁targets	-11.8699
▁siddharmaiya	-11.8702
▁los	-11.8702
▁107	-11.8703
▁dastakhat	-11.8703
▁honkong	-11.8703
▁traveled	-11.8703
▁bolnaa	-11.8704
▁badali	-11.8706
▁sansadhano	-11.8707
▁jagdish	-11.8707
▁prabhaavshaalee	-11.8707
▁chapter	-11.8708
▁ocean	-11.8709
▁japani	-11.8712
▁impressed	-11.8721
▁wike	-11.8722
▁narmi	-11.8722
▁daren	-11.8726
▁havoc	-11.8727
▁mines	-11.8731
▁arise	-11.8732
▁dweep	-11.8733
au	-11.8733
▁lageen	-11.8734
▁shiya	-11.8734
▁rashtrapati	-11.8736
▁mostly	-11.8737
▁udai	-11.8738
ov	-11.8738
▁'(	-11.8739
▁consistently	-11.8741
▁demonstrated	-11.8741
▁parshad	-11.8745
▁15-	-11.8745
▁neighborhood	-11.8747
▁nyaayadhishon	-11.8748
▁carbon	-11.8749
▁batan	-11.8749
▁kamajori	-11.875
▁announcing	-11.8751
▁sameep	-11.8753
general	-11.8755
▁yechuri	-11.8755
▁bindu	-11.8755
▁145	-11.8755
▁rashtrawaad	-11.8756
▁thode	-11.8758
▁pahunchin	-11.8759
▁kiraaye	-11.8762
▁glimpse	-11.8764
▁transaction	-11.8766
▁umar	-11.8769
▁jayavardhane	-11.8769
▁mix	-11.8769
▁cartoon	-11.877
▁jhagade	-11.877
▁malayalam	-11.877
▁sochane	-11.8771
▁djokovic	-11.8771
▁airbase	-11.8773
▁sweden	-11.8773
chennai	-11.8775
▁awaited	-11.8778
▁nami	-11.8779
▁responding	-11.8781
▁haasan	-11.8782
▁mega	-11.8782
▁surajevaala	-11.8783
▁prohibition	-11.8783
▁kaledhan	-11.8784
bat	-11.8786
▁destroy	-11.8789
▁netherlands	-11.8792
▁amin	-11.8792
jeet	-11.8793
▁polls	-11.8793
▁sorry	-11.8793
▁shaktishaalee	-11.8794
▁bottom	-11.8794
▁cricketron	-11.8796
▁slightly	-11.8796
▁gatividhi	-11.8797
▁launching	-11.8797
▁methods	-11.8798
▁spashtikaran	-11.8799
surakshakarmiyon	-11.8801
▁gehun	-11.8802
▁loot	-11.8802
▁subramanian	-11.8804
▁dua	-11.8805
▁chhodana	-11.8805
▁gathjod	-11.8805
▁adil	-11.8807
media	-11.8809
▁lokation	-11.881
▁byoraa	-11.881
▁pushkar	-11.8813
▁ateet	-11.8815
▁hoon	-11.8817
▁iraqi	-11.8818
▁davis	-11.8819
▁auskar	-11.8819
ence	-11.8824
▁tongue	-11.8826
▁windows	-11.8827
▁harry	-11.8828
▁zakir	-11.8829
▁ahsaas	-11.8829
▁clarify	-11.8831
▁nigeria	-11.8831
▁motive	-11.8832
▁personally	-11.8834
▁quit	-11.8835
▁nakal	-11.8837
▁separatist	-11.8839
▁maithyuj	-11.884
laws	-11.8843
▁grah	-11.8844
res	-11.8846
▁abused	-11.8847
▁dialog	-11.8847
▁mandiron	-11.8848
▁phenkane	-11.8849
▁extension	-11.885
▁cji	-11.8856
▁mistry	-11.8857
▁cinemagharon	-11.8858
▁insult	-11.8858
▁oonche	-11.886
▁mandsaur	-11.8862
jha	-11.8862
aisa	-11.8863
gal	-11.8863
▁ghoshnaptr	-11.8864
engi	-11.8869
▁tcs	-11.8869
▁bhubaneswar	-11.8876
▁mithun	-11.888
▁hike	-11.888
▁humans	-11.8882
mein	-11.8884
▁pahalwaan	-11.8885
dhi	-11.8886
▁118	-11.8887
▁couples	-11.8888
rani	-11.8889
▁thukraa	-11.8891
▁ankush	-11.8892
▁ayyar	-11.8892
▁durust	-11.8893
▁speaks	-11.8893
▁paathyakram	-11.8894
▁vhp	-11.8894
good	-11.8897
▁pravasi	-11.8898
▁powder	-11.8898
▁bhandari	-11.8899
▁sunate	-11.8899
▁dramuk	-11.89
▁tikaoo	-11.8902
▁acb	-11.8902
▁eshanth	-11.8905
▁pashu	-11.8906
▁khaasiyat	-11.8906
▁hemant	-11.8908
▁mosul	-11.8909
icc	-11.891
▁asaar	-11.8913
▁didi	-11.8917
▁vishisht	-11.8918
▁locals	-11.8918
▁associates	-11.892
▁thriller	-11.892
73	-11.8924
▁analyst	-11.8924
▁nishkarsh	-11.8925
▁samanvay	-11.8926
nan	-11.8926
▁faction	-11.8926
▁contribute	-11.8933
▁asad	-11.8937
mon	-11.8938
▁thieves	-11.894
▁legendary	-11.894
▁khatir	-11.894
▁tom	-11.8941
▁chocolate	-11.8941
▁bareilly	-11.8942
▁bjd	-11.8943
▁hatred	-11.8943
▁hathi	-11.8945
sur	-11.8948
84	-11.8948
▁stroke	-11.8951
ping	-11.8952
▁netanyahu	-11.8952
▁violating	-11.8953
▁stir	-11.8954
▁bang	-11.8955
▁wrestler	-11.8956
▁dg	-11.8959
▁bumraah	-11.8959
▁principles	-11.896
▁customs	-11.896
▁hang	-11.8961
paanch	-11.8961
▁pherbadal	-11.8964
aate	-11.8966
▁padaadhikari	-11.8967
▁2011.	-11.8969
▁smarak	-11.897
▁picked	-11.8973
▁wherever	-11.8975
▁chose	-11.8976
▁gaaya	-11.8976
▁painting	-11.8977
nam	-11.8977
end	-11.8979
raat	-11.8979
▁pieces	-11.8982
▁industrialists	-11.8983
▁sanshodhit	-11.8986
▁establishment	-11.8987
▁chuni	-11.8991
▁zafar	-11.8992
▁rupani	-11.8994
▁subodh	-11.8995
▁babulal	-11.8997
▁ray	-11.8997
▁aties	-11.9
▁hataahat	-11.9003
▁angelo	-11.9005
▁maanviya	-11.9007
▁shaikshanik	-11.9007
▁locations	-11.9008
kendriya	-11.9009
▁vladimir	-11.9009
▁rocky	-11.901
▁scotland	-11.9011
▁rane	-11.9011
▁maheenaa	-11.9013
▁pages	-11.9015
▁weakened	-11.9017
▁sarita	-11.9019
▁onfeb	-11.902
▁maalikon	-11.902
79	-11.902
▁musiibat	-11.9027
▁rebels	-11.9027
▁deadlock	-11.9027
▁treaty	-11.9028
▁gopneey	-11.9028
▁gambheer	-11.9033
▁tensions	-11.9034
▁nike	-11.9035
▁maldives	-11.9037
bha	-11.9037
▁vodaphone	-11.9039
▁karpshan	-11.9041
▁tear	-11.9043
video	-11.9045
▁sick	-11.9045
▁milin	-11.9046
▁traded	-11.9046
▁concert	-11.9046
▁promoted	-11.905
▁gandhiji	-11.905
hra	-11.905
▁shyaam	-11.9051
▁rajbhar	-11.9051
ez	-11.9051
▁mulyon	-11.9055
▁cameron	-11.9056
▁sidney	-11.9059
▁amla	-11.9059
▁spoil	-11.9062
▁ghataane	-11.9062
▁virgon	-11.9062
aapako	-11.9064
▁bricks	-11.9069
▁cheated	-11.907
▁paanchvaan	-11.907
pashchim	-11.9071
▁diu	-11.9072
▁paraamarsh	-11.9072
▁rach	-11.9076
▁ya	-11.9077
▁treat	-11.9077
▁123	-11.9077
▁samudaayon	-11.908
than	-11.9082
▁mujh	-11.9082
▁anthem	-11.9083
▁artificial	-11.9085
▁prayagraj	-11.9085
jaise	-11.9088
yogi	-11.909
▁dohare	-11.9091
▁trol	-11.9091
▁algaavvaadi	-11.9093
▁teble	-11.9093
▁nikaalkar	-11.9098
tiger	-11.9099
gy	-11.9099
▁chalange	-11.91
▁acts	-11.91
▁varsha	-11.91
)(	-11.9101
▁discharged	-11.9101
▁maybe	-11.9102
▁expressway	-11.9109
▁jack	-11.911
▁sciences	-11.911
▁pu	-11.9114
▁stranded	-11.9114
▁consequences	-11.9118
▁parichay	-11.9119
vijay	-11.912
share	-11.912
▁kasbe	-11.9121
▁ooncha	-11.9121
▁uthne	-11.9121
responsibilities	-11.9121
▁ramchandra	-11.9124
top	-11.9124
▁ghusane	-11.9126
▁topic	-11.9127
▁capshan	-11.9127
▁yakub	-11.9128
▁bhagava	-11.9128
▁healthcare	-11.9129
▁vij	-11.9129
donon	-11.9131
▁arena	-11.9134
ning	-11.9138
▁arm	-11.9139
▁tejas	-11.914
alia	-11.9141
▁kamazor	-11.9143
▁bighad	-11.9144
ven	-11.9147
▁watched	-11.9147
first	-11.915
board	-11.915
▁bayaanbaji	-11.9151
▁hub	-11.9154
▁tragedy	-11.9155
ev	-11.9159
oy	-11.9159
▁enemies	-11.916
▁2007,	-11.9165
▁bapu	-11.9166
▁pratipaksh	-11.9167
▁bilaspur	-11.9167
▁deteriorating	-11.9167
▁medalist	-11.9168
size	-11.9169
ullah	-11.9171
▁mit	-11.9173
▁afjal	-11.9177
▁bharpai	-11.9178
▁asha	-11.918
▁batra	-11.9181
▁honey	-11.9183
69	-11.9185
▁neighbor	-11.9188
▁shoeb	-11.919
mil	-11.9191
fe	-11.9191
▁disappointing	-11.9193
▁padaadhikariyon	-11.9193
▁begum	-11.9193
▁listed	-11.9196
▁deals	-11.9197
▁ekatra	-11.9197
▁dowry	-11.9197
baap	-11.9198
▁gauda	-11.9198
▁upgrah	-11.9198
▁leads	-11.9201
▁js	-11.9202
▁caption	-11.9202
pl	-11.9203
▁paidal	-11.9204
▁diene	-11.9209
wing	-11.9211
▁khai	-11.9213
▁boycott	-11.9214
▁yashavanth	-11.9215
▁sandhya	-11.9216
▁realize	-11.9218
▁jurm	-11.9218
actor	-11.9219
amit	-11.9219
▁fighters	-11.9219
iti	-11.922
▁gatividhiyaan	-11.9222
lalu	-11.9227
▁padhe	-11.9228
▁doharaaya	-11.9229
▁airforce	-11.9229
▁swaabhaavik	-11.9229
▁panama	-11.9232
taiyaba	-11.9235
pet	-11.9239
▁sasti	-11.924
aise	-11.9241
▁explosives	-11.9241
▁jointly	-11.9244
▁arisen	-11.9245
▁harvard	-11.9245
▁parikshaon	-11.9246
ls	-11.9246
▁swift	-11.9249
▁varanaa	-11.9253
▁farhaan	-11.9254
▁sabarimala	-11.9255
ola	-11.9256
▁licenses	-11.9259
▁conferencing	-11.9259
▁doval	-11.926
▁stick	-11.926
▁victoria	-11.926
▁tabadalaa	-11.926
▁attending	-11.926
▁equation	-11.926
chadhaav	-11.9263
▁occur	-11.9264
wadi	-11.9265
▁antat	-11.9265
▁gill	-11.9266
▁ladanaa	-11.9267
▁najuk	-11.9268
half	-11.9269
▁maanak	-11.9269
▁chhap	-11.927
▁lifted	-11.927
▁punish	-11.9271
▁memorandum	-11.9271
▁ghi	-11.9272
▁tejpal	-11.9273
▁overseas	-11.9274
▁zaahir	-11.9274
haar	-11.9275
▁tarakkee	-11.9278
▁badalte	-11.9279
▁jisko	-11.9281
▁mendis	-11.9281
▁missiles	-11.9283
▁shaan	-11.9284
▁sufficient	-11.9285
▁regret	-11.9285
▁snake	-11.9286
▁yues	-11.9286
▁shadow	-11.9286
karanjohar	-11.9286
▁ec	-11.9287
▁bangale	-11.9289
▁sandhu	-11.9291
▁tokyo	-11.9292
▁carefully	-11.9293
▁hansi	-11.9293
▁mns	-11.9294
▁punam	-11.9294
▁cd	-11.9294
▁chuninda	-11.9296
▁individual	-11.9296
▁liver	-11.9297
▁nirupam	-11.9297
▁25,000	-11.9302
▁cambridge	-11.9303
▁kile	-11.9303
▁abhibhavakon	-11.9306
▁bb	-11.9307
his	-11.9308
point	-11.9309
▁brics	-11.931
▁banaati	-11.9311
▁1967	-11.9311
▁kaamana	-11.9312
▁amendments	-11.9314
▁kitabon	-11.9318
▁walked	-11.9322
▁tisies	-11.9324
▁tuutane	-11.9325
▁brave	-11.9327
aren	-11.9329
▁danish	-11.933
▁dhwast	-11.9332
ena	-11.9332
▁dangal	-11.9336
▁extend	-11.9339
▁ajij	-11.934
▁luxury	-11.9342
▁vimarsh	-11.9343
▁fares	-11.9343
cbi	-11.9347
▁kharidari	-11.9348
▁1200	-11.9349
▁pointed	-11.9352
▁remake	-11.9354
▁paramparaagat	-11.9356
▁fined	-11.9357
▁dayaa	-11.9357
▁regulator	-11.9359
sir	-11.9361
▁split	-11.9361
▁damaad	-11.9362
▁1985	-11.9363
xi	-11.9364
pehle	-11.9365
hindi	-11.9366
ating	-11.9366
▁password	-11.9367
▁intentions	-11.9368
▁drawn	-11.9368
▁bahaali	-11.9368
▁kajol	-11.937
▁paanv	-11.9372
▁byopic	-11.9375
▁doesn	-11.9376
▁educated	-11.9377
▁vish	-11.9377
log	-11.9378
▁decisive	-11.9378
▁criticizing	-11.9379
▁10-	-11.9381
▁fodder	-11.9383
▁farewell	-11.9383
▁nawazuddin	-11.9386
▁specialist	-11.9387
▁cells	-11.9388
▁milani	-11.9389
▁376	-11.9392
▁izzat	-11.9392
▁vat	-11.9393
▁chaahunga	-11.9394
pha	-11.9394
▁chikitsakon	-11.9397
▁retained	-11.9398
▁mathematics	-11.9398
▁jangalon	-11.94
▁asthana	-11.9405
▁brahmin	-11.9405
▁barfbaari	-11.9408
ps	-11.9408
▁airports	-11.9411
▁anita	-11.9413
▁rumor	-11.9415
kala	-11.9417
▁crown	-11.9417
▁hira	-11.9421
▁laughing	-11.9421
▁rijiju	-11.9423
▁kamaane	-11.9424
▁cafe	-11.9428
▁kushti	-11.943
▁sujuki	-11.943
▁prahaar	-11.943
▁chamak	-11.9433
▁nilamban	-11.9433
72	-11.9433
▁groom	-11.9435
▁chandrayaan	-11.9441
saamne	-11.9441
▁bataakar	-11.9443
▁naak	-11.9446
▁twanti	-11.9448
▁joke	-11.9448
▁sultanpur	-11.9449
▁dinda	-11.9449
▁rachi	-11.9451
▁sadanon	-11.9451
▁bonus	-11.9451
▁combat	-11.9452
▁2500	-11.9454
▁zariye	-11.9455
▁melbourne	-11.9458
▁rod	-11.9458
▁herald	-11.9462
▁graph	-11.9463
▁hospitalized	-11.9464
▁expression	-11.9465
▁baniin	-11.9466
▁inauguration	-11.9466
▁quran	-11.9468
▁banaaen	-11.9475
▁holders	-11.9476
▁ag	-11.9477
▁pragatisheel	-11.9477
ita	-11.9478
▁deveopment	-11.9479
▁(4)	-11.9481
▁failing	-11.9484
minute	-11.9484
▁baant	-11.9485
▁05.	-11.9486
▁harshavardhan	-11.9486
96	-11.9489
▁hansraj	-11.9489
▁sateek	-11.9489
▁disturbed	-11.9493
▁cylinder	-11.9496
▁mirzapur	-11.9497
▁hycourt	-11.9503
▁convicts	-11.9504
▁bhat	-11.9505
▁maliwal	-11.9507
▁machhlee	-11.9508
▁erupted	-11.951
▁ourselves	-11.9514
▁banenge	-11.9516
▁sangheey	-11.9516
▁civilian	-11.9516
▁procedure	-11.9519
▁annually	-11.9521
▁bagal	-11.9522
▁celebrity	-11.9523
▁ghoomane	-11.9529
▁kshatigrast	-11.9529
riya	-11.9529
▁academic	-11.9532
▁drushtikon	-11.9532
▁ruke	-11.9532
▁baluchistan	-11.9534
71	-11.9535
▁geetika	-11.9536
▁hosh	-11.9538
een	-11.9541
▁niveshak	-11.9542
darasal	-11.9543
▁dwayne	-11.9543
▁bhima	-11.9546
▁ardhsainik	-11.9547
beti	-11.9548
▁katai	-11.9551
▁uploaded	-11.9552
ii	-11.9552
▁bhakton	-11.9552
▁destination	-11.9556
▁jignesh	-11.9557
▁equality	-11.9559
▁warm	-11.9559
▁connactivity	-11.956
▁lit	-11.9562
▁crash	-11.9562
▁char	-11.9562
▁church	-11.9562
gaa	-11.9564
▁patidar	-11.9568
▁beach	-11.9568
▁apollo	-11.9573
▁116	-11.9574
▁pc	-11.9574
▁depends	-11.9575
▁256	-11.9575
▁onmar	-11.9579
▁ancient	-11.958
▁enjoying	-11.9581
▁vin	-11.9582
▁crazy	-11.9585
far	-11.9585
▁shut	-11.9585
fo	-11.9588
▁purohit	-11.9588
ph	-11.9595
▁lagaaye	-11.9598
dc	-11.9598
▁upkarnon	-11.9599
▁editorial	-11.9599
▁politician	-11.9604
▁richa	-11.9605
▁pin	-11.9606
▁kalege	-11.9606
▁ashwini	-11.9607
▁mai	-11.9609
▁jaagruk	-11.9609
▁dinar	-11.9609
▁contrary	-11.9614
▁jafar	-11.9614
rk	-11.9618
▁ghutane	-11.9618
▁(3)	-11.9618
▁disclosure	-11.962
▁networking	-11.9621
▁nand	-11.9622
▁prestigious	-11.9625
▁journalism	-11.9625
▁louis	-11.9628
▁jiro	-11.963
▁aakarshak	-11.9632
▁6-3,	-11.9633
▁vijendra	-11.9634
▁2-1	-11.9635
▁zarie	-11.9636
/1	-11.9637
kin	-11.9638
▁pranav	-11.9639
▁bars	-11.964
▁esemes	-11.964
▁goddess	-11.9643
▁naman	-11.9644
▁jalaane	-11.9646
▁kahaniyaan	-11.9649
▁samakaksh	-11.965
▁experiences	-11.9651
▁jhaansi	-11.9651
▁jalwaayu	-11.9656
▁con	-11.9656
▁sequel	-11.9657
▁nu	-11.9657
▁rathod	-11.9659
▁mask	-11.966
▁takaraa	-11.966
bra	-11.9663
iv	-11.9663
97	-11.9664
▁commented	-11.9664
▁titled	-11.9666
▁dikhaanaa	-11.9667
▁chir	-11.9667
▁morale	-11.9667
▁suraag	-11.967
▁messi	-11.967
▁fruit	-11.9672
▁visits	-11.9672
▁paakar	-11.9673
▁mercury	-11.9673
▁rithik	-11.9673
▁tractor	-11.9675
▁categories	-11.9677
▁atyant	-11.9678
▁institutes	-11.9681
▁bees	-11.9683
▁trucks	-11.9683
▁netwarking	-11.9684
▁hizbul	-11.9687
▁actual	-11.9688
▁profeshnal	-11.9688
▁biju	-11.9688
▁rajpath	-11.9688
▁vidhan	-11.969
▁janaganana	-11.9692
▁sansanikhej	-11.9692
▁bhram	-11.9692
▁aaajeevan	-11.9695
▁sambhddha	-11.9695
▁ncr	-11.9696
yal	-11.9698
▁navi	-11.9698
▁manisha	-11.9698
▁ahmiyat	-11.97
aji	-11.97
hd	-11.9702
▁overnight	-11.9703
▁surakshakarmi	-11.9703
▁fatehi	-11.9705
▁dave	-11.9705
▁equity	-11.9705
▁frequent	-11.9707
▁kiske	-11.9708
▁dean	-11.9708
▁kishori	-11.9714
▁patidaar	-11.9714
▁superb	-11.9716
videsh	-11.9717
▁anubandh	-11.9717
▁haaavee	-11.9722
▁bhoj	-11.9722
her	-11.9722
▁mashiinon	-11.9725
▁proposals	-11.9728
▁pistal	-11.9729
▁javabdehi	-11.9729
▁sport	-11.973
▁memorable	-11.9733
▁chaddha	-11.9733
▁mainpuri	-11.9735
▁pairon	-11.9736
▁ukt	-11.9736
ker	-11.9741
ghz	-11.9743
▁daavedaari	-11.9743
united	-11.9743
▁prasar	-11.9746
▁samanta	-11.9747
▁chandrasekhar	-11.9748
▁chintaaon	-11.9749
▁chukaane	-11.9749
▁onions	-11.9749
▁tir	-11.9749
▁capture	-11.975
▁kapadaa	-11.9751
▁suut	-11.9754
▁isaliye	-11.9755
▁sufi	-11.9755
▁bukhaar	-11.9756
▁nrity	-11.9756
▁mary	-11.9757
▁yaqub	-11.9757
▁supports	-11.9757
▁shahzad	-11.9757
▁starrer	-11.9757
ization	-11.976
▁faster	-11.9763
▁contempt	-11.9763
▁ummidavaari	-11.9764
haal	-11.9764
▁milind	-11.9765
88	-11.9766
▁useful	-11.9768
▁pr	-11.9768
▁aalu	-11.977
▁mahi	-11.977
▁vidhyaarthee	-11.9771
▁6-4	-11.9771
▁dahej	-11.9773
tam	-11.9774
▁upanyaas	-11.9777
▁disipi	-11.9779
▁protecting	-11.9779
▁swa	-11.978
▁interior	-11.9786
▁oengisi	-11.9791
▁uthaai	-11.9792
▁lions	-11.9794
,900	-11.9796
▁packet	-11.9799
▁window	-11.9799
▁swadesh	-11.98
▁1982	-11.9801
▁faisal	-11.9801
▁nigaah	-11.9804
deepika	-11.9807
▁notices	-11.9808
▁tabadatod	-11.9808
▁chaa	-11.9809
▁laghu	-11.9812
▁manobal	-11.9816
▁2009.	-11.9817
▁tas	-11.9817
tum	-11.9819
▁rimek	-11.982
▁namaaj	-11.982
▁sambhaavnaaon	-11.9821
▁makeup	-11.9821
giri	-11.9823
▁boxer	-11.9825
▁andre	-11.9826
▁pravaah	-11.9827
▁seminar	-11.9827
▁lap	-11.9827
▁kheme	-11.9829
▁infection	-11.983
▁mahato	-11.9831
sena	-11.9834
▁kapal	-11.9834
▁viewers	-11.9836
▁niraashajanak	-11.9839
▁hemraj	-11.984
▁wales	-11.9842
▁snaatak	-11.9842
▁lodhi	-11.9843
▁gavaahi	-11.9845
▁min	-11.9846
▁refugees	-11.9853
▁nora	-11.9854
▁mahakumbh	-11.9854
92	-11.9854
▁saaha	-11.9855
▁ride	-11.9857
▁attract	-11.986
▁ceiling	-11.9861
▁koshishen	-11.9862
▁prevented	-11.9863
▁guns	-11.9864
▁betting	-11.9864
62	-11.9865
▁ganvaane	-11.9865
▁repeat	-11.9866
▁pichhadaa	-11.9869
▁panchkula	-11.9869
▁justified	-11.987
ized	-11.9871
▁taala	-11.9873
▁uplabdhiyon	-11.9873
▁hemanth	-11.9875
▁ayogy	-11.9876
▁surrendered	-11.9878
mad	-11.9879
-30	-11.9879
▁protected	-11.9879
▁147	-11.9879
▁stephen	-11.9882
▁swimming	-11.9882
▁babri	-11.9883
▁lasith	-11.9884
bank	-11.9887
▁sitaram	-11.9888
▁warirs	-11.9888
▁electronics	-11.9888
▁bound	-11.989
▁maria	-11.989
▁bullate	-11.9894
▁samson	-11.9897
▁congratulate	-11.9897
▁holidays	-11.9898
▁accountability	-11.99
▁closing	-11.9903
▁pahunchenge	-11.9904
▁dhooma	-11.9906
▁2018-19	-11.9907
▁barabanki	-11.991
handed	-11.9912
▁veer	-11.9914
era	-11.9915
ds	-11.9918
▁visas	-11.9918
▁mali	-11.9918
▁namak	-11.9918
▁sarender	-11.9919
▁canal	-11.9919
▁leh	-11.9919
▁maance	-11.992
▁disturbances	-11.992
▁sakshya	-11.9922
▁mistre	-11.9927
▁button	-11.9927
▁pados	-11.9929
▁gar	-11.9932
▁safely	-11.9934
▁depth	-11.9939
▁saanp	-11.994
▁economics	-11.9941
▁coridor	-11.9941
▁lashed	-11.9942
▁minds	-11.9942
ct	-11.9943
▁oscar	-11.9945
▁ambala	-11.9945
▁narasimha	-11.9948
000	-11.9948
▁sijafire	-11.9949
▁vaadon	-11.9951
▁parvej	-11.9952
▁roll	-11.9953
▁exciting	-11.9953
▁massacre	-11.9954
▁juhi	-11.9955
▁discipline	-11.9958
▁thief	-11.9958
▁10:30	-11.9961
▁mercy	-11.9965
ard	-11.9965
▁saakh	-11.9965
▁niranjan	-11.9965
▁pujari	-11.9967
▁predicted	-11.9969
▁anushaasan	-11.997
udhar	-11.997
hr	-11.9971
▁mathews	-11.9972
▁egypt	-11.9973
▁lade	-11.9974
2017	-11.9975
▁rakshaamantri	-11.9976
▁tateey	-11.9976
▁commenting	-11.9978
▁dhund	-11.9979
ze	-11.9981
▁comprehensive	-11.9982
▁mainly	-11.9982
rc	-11.9984
apni	-11.9985
▁dho	-11.9987
▁urvashi	-11.9988
▁ishaare	-11.9989
▁ghuskar	-11.999
ranveersingh	-11.999
▁generally	-11.9991
▁binny	-11.9992
▁yachikaaon	-11.9993
▁fy	-11.9998
▁disappeared	-12
▁principle	-12.0001
▁ubhar	-12.0003
▁paristhiti	-12.0011
▁perspective	-12.0015
▁slipped	-12.0015
▁mansoor	-12.0015
▁pac	-12.002
▁misuse	-12.002
▁148	-12.0021
▁dalbir	-12.0021
oh	-12.0022
▁library	-12.0022
▁introduction	-12.0022
▁jhil	-12.0023
▁writers	-12.0024
▁peshi	-12.0027
▁album	-12.003
▁mona	-12.0031
sie	-12.0031
▁poetry	-12.0034
loksabhaa	-12.0035
▁links	-12.0035
▁villain	-12.0036
▁imaaraton	-12.0038
▁avasthaa	-12.0038
▁richter	-12.0038
▁grains	-12.0039
▁tiki	-12.0041
▁transparent	-12.0042
▁rachane	-12.0042
▁korian	-12.0042
▁ravan	-12.0043
▁hawaondde	-12.0045
▁emes	-12.0046
▁suggestion	-12.0046
▁paath	-12.0047
▁conductor	-12.0049
▁babari	-12.0049
sabhi	-12.0049
▁nawaja	-12.0054
▁devices	-12.0054
▁padosiyon	-12.0056
/4	-12.0057
▁trai	-12.0057
▁salaam	-12.006
2014	-12.006
▁adequate	-12.0061
▁153	-12.0062
▁lifetime	-12.0063
▁treasury	-12.0065
▁chhathi	-12.0065
▁complainant	-12.0066
▁namo	-12.0066
▁sasuraal	-12.0068
▁companions	-12.0068
▁nahar	-12.0068
aani	-12.0069
▁organizers	-12.007
▁pahunchnaa	-12.0072
▁joe	-12.0072
tre	-12.0073
/3	-12.008
megapixel	-12.008
▁waqf	-12.0084
▁182	-12.0086
▁mills	-12.0086
▁oman	-12.0087
▁ndrf	-12.0088
▁dealer	-12.009
izing	-12.009
▁environmental	-12.0092
▁2004,	-12.0093
-12	-12.0093
dein	-12.0094
▁24-	-12.0096
▁cp	-12.0099
▁meant	-12.01
▁bipin	-12.0104
▁aagaah	-12.0105
▁todakar	-12.0105
▁bahul	-12.0107
▁avkaash	-12.0108
▁adivaasiyon	-12.011
▁pattee	-12.011
▁janardan	-12.0111
▁muaavje	-12.0112
▁karawas	-12.0112
▁count	-12.0112
▁roaming	-12.0117
▁6000	-12.0118
▁vardi	-12.0118
▁gunjaaish	-12.0119
▁quoting	-12.0119
▁wood	-12.012
▁kaan	-12.0122
▁40,000	-12.0123
▁taalluk	-12.0123
▁answering	-12.0124
-21	-12.0124
▁dozens	-12.0126
▁sugarcane	-12.0127
▁bhuskhalan	-12.0127
▁honeypreet	-12.0127
▁kamity	-12.0129
▁jose	-12.013
▁committees	-12.0133
▁1970	-12.0134
▁kasar	-12.0136
▁topper	-12.014
▁132	-12.0141
▁sexually	-12.0146
jis	-12.0147
▁allocated	-12.0147
virat	-12.0149
▁pracheen	-12.0149
▁poisonous	-12.0151
▁01.	-12.0151
▁omprakash	-12.0155
▁yuai	-12.0156
chak	-12.0158
▁malviya	-12.0161
▁sh	-12.0162
▁malaria	-12.0163
▁gaanon	-12.0164
▁stressed	-12.0165
▁sheetakaaleen	-12.0166
appa	-12.0169
▁karyrat	-12.017
▁amala	-12.017
▁follows	-12.0172
▁stf	-12.0173
▁photographer	-12.0174
▁biji	-12.0174
▁vanijyik	-12.0175
bhu	-12.0177
▁akmal	-12.0178
▁contender	-12.0183
▁experiment	-12.0184
▁nar	-12.0184
▁hectare	-12.0187
▁misleading	-12.0188
▁baratane	-12.019
▁aajtak	-12.0191
ora	-12.0193
▁alqaida	-12.0194
▁mukaam	-12.0194
▁indra	-12.0196
▁suchanaaen	-12.0198
▁bacchiyon	-12.0202
▁payalton	-12.0202
ld	-12.0202
▁pahaad	-12.0204
▁parole	-12.0206
government	-12.0208
get	-12.0209
▁avmaananaa	-12.0209
▁relevant	-12.0209
▁abhiyan	-12.021
▁blame	-12.0212
▁chandimal	-12.0214
▁dwivedi	-12.0214
▁bajrangi	-12.0215
▁cyclone	-12.0215
▁rob	-12.0218
▁suhana	-12.0219
▁cadre	-12.0219
▁164	-12.0219
▁kaagaj	-12.022
ky	-12.0222
▁chai	-12.0224
▁marammat	-12.0225
▁khed	-12.0225
▁mur	-12.0226
▁darjanon	-12.0227
▁6-	-12.0227
▁adjoining	-12.0229
fixing	-12.023
lam	-12.0231
khi	-12.0231
▁paan	-12.0232
▁vijan	-12.0234
▁models	-12.0235
▁riya	-12.0236
▁pratishtha	-12.0238
ep	-12.024
dena	-12.0241
▁shauk	-12.0243
▁madhyasthata	-12.0249
▁mujahidin	-12.0249
post	-12.0251
▁ghaatak	-12.0251
▁andaman	-12.0253
well	-12.0254
▁nirmit	-12.0255
▁injustice	-12.0255
▁bags	-12.0256
▁zimmedaari	-12.0256
▁hijbul	-12.0257
▁farmaan	-12.0257
▁confirm	-12.0259
▁bhatia	-12.0259
▁invite	-12.026
▁chaukeedaar	-12.0261
▁deployment	-12.0261
▁masala	-12.0261
▁166	-12.0262
▁canteen	-12.0262
▁mentally	-12.0262
▁separatists	-12.0263
▁stationed	-12.0263
▁quad	-12.0264
▁khelkar	-12.0265
▁contains	-12.0265
▁pragyan	-12.0265
▁penlti	-12.0269
▁hakdaar	-12.0269
▁phenkaa	-12.0271
▁ntpc	-12.0273
▁parantu	-12.0273
▁tumhaare	-12.0275
▁saadhane	-12.0277
▁ij	-12.0279
▁giraane	-12.0279
▁enjoyed	-12.028
pp	-12.028
▁isroyal	-12.0281
▁dhruv	-12.0282
▁hardly	-12.0284
▁saran	-12.0287
▁eclipse	-12.0289
▁sinhua	-12.0289
▁lens	-12.0292
▁aashcharya	-12.0292
▁kone	-12.0293
▁confidential	-12.0296
▁gyaapan	-12.0297
▁rochak	-12.0297
▁juute	-12.03
▁sampadak	-12.0303
ore	-12.0304
sit	-12.0304
▁stepped	-12.0305
▁operator	-12.0308
▁pahanakar	-12.031
▁naved	-12.031
▁kaashi	-12.0311
▁sharabbandi	-12.0311
▁qualcomm	-12.0312
▁rhetoric	-12.0312
▁134	-12.0312
▁haniprit	-12.0316
ney	-12.0317
related	-12.0321
▁binni	-12.0323
▁chhatrapati	-12.0323
▁saavdhaan	-12.0325
▁wishing	-12.0329
▁maternal	-12.0332
▁disappointment	-12.0332
▁patriotism	-12.0336
▁yaadgaar	-12.0337
▁mathew	-12.0341
▁dastak	-12.0341
▁shreyas	-12.0343
▁ronaldo	-12.0343
▁udhampur	-12.0344
▁convert	-12.0345
▁nakaar	-12.0346
phi	-12.0346
▁pk	-12.0347
63	-12.035
/5	-12.0352
▁kulapati	-12.0354
▁finalized	-12.0358
▁stant	-12.0361
▁maldive	-12.0361
▁tired	-12.0363
▁firecrackers	-12.0366
▁dulhan	-12.0368
▁chutki	-12.0368
▁mahadev	-12.037
▁avoided	-12.0371
▁tunnel	-12.0374
▁divide	-12.0374
▁baghdad	-12.0375
▁unite	-12.0377
▁siwan	-12.0378
▁cylinders	-12.0379
▁ignoring	-12.038
▁restored	-12.0382
▁appoint	-12.0383
▁gen	-12.0383
▁daniel	-12.0384
▁masauda	-12.0384
▁bhutto	-12.0388
bajrangi	-12.039
▁formule	-12.0393
▁chalaang	-12.0393
▁khulne	-12.0395
▁haih	-12.0395
▁ranji	-12.0397
▁cry	-12.0398
guru	-12.0398
▁uday	-12.0399
▁pratadit	-12.04
state	-12.0402
▁salem	-12.0403
▁buyers	-12.0404
▁sataha	-12.0405
ech	-12.0406
▁pujan	-12.0407
▁usa	-12.0407
▁riection	-12.0408
ance	-12.0411
▁sarva	-12.0412
made	-12.0416
▁deb	-12.0417
▁disputes	-12.042
▁khajaane	-12.0421
▁parineeti	-12.0422
▁creative	-12.0422
▁batted	-12.0426
▁naav	-12.0427
▁baapu	-12.0428
▁dwen	-12.0428
▁revised	-12.0429
▁badalanaa	-12.0429
▁dabangg	-12.043
▁rajbhavan	-12.0432
▁1965	-12.0433
▁dantewada	-12.0434
▁2-3	-12.0435
▁savings	-12.0436
▁upayukta	-12.0437
▁daag	-12.0438
▁chaaya	-12.0442
▁org	-12.0445
▁attempted	-12.0446
▁chandramaa	-12.0447
▁sharapova	-12.0448
▁interestingly	-12.045
▁iyer	-12.0452
▁jasoos	-12.0453
▁jatil	-12.0456
▁wore	-12.0457
▁jaanwaron	-12.0461
▁saas	-12.0461
▁pnb	-12.0462
▁thirty	-12.0463
▁sequence	-12.0463
▁regime	-12.0464
▁jacqueline	-12.0464
▁behosh	-12.0465
km	-12.0466
▁exploitation	-12.0469
▁honesty	-12.0469
▁samastipur	-12.047
▁tirangaa	-12.0473
uf	-12.0475
▁reference	-12.0475
aug	-12.0477
ira	-12.0478
▁pacific	-12.0479
akshay	-12.048
▁talika	-12.0481
haq	-12.0484
▁akelaa	-12.0485
▁kamala	-12.0485
▁khelenge	-12.0489
▁lights	-12.049
rn	-12.0491
maan	-12.0494
▁larger	-12.0499
mantar	-12.0499
▁lala	-12.05
▁vaktavy	-12.0501
▁appal	-12.0502
koun	-12.0502
▁dilshan	-12.0503
▁sensation	-12.0504
▁highways	-12.0508
▁paye	-12.0509
▁malaysian	-12.051
▁cuts	-12.0512
▁ahuja	-12.0513
▁ljp	-12.0517
vs	-12.0518
▁depression	-12.0521
▁dilashaan	-12.0521
▁gains	-12.0522
▁siikhaa	-12.0525
▁subramanyam	-12.0529
▁paridrishy	-12.0529
fii	-12.053
▁integrated	-12.0531
dra	-12.0534
dhar	-12.0536
▁starer	-12.0536
▁perth	-12.054
▁empowerment	-12.0542
▁shodhakartaaon	-12.0544
▁nana	-12.0546
▁gi	-12.0548
▁beton	-12.055
▁lagaaein	-12.0551
▁mom	-12.0553
nik	-12.0553
▁parvaah	-12.0556
ajtak	-12.0556
▁leak	-12.0557
▁refer	-12.0558
▁prabandhak	-12.0559
▁naming	-12.056
▁142	-12.056
see	-12.0561
▁bhaar	-12.0562
▁nirast	-12.0564
oli	-12.0565
▁assassination	-12.0566
gst	-12.0566
▁bor	-12.0569
▁golf	-12.0569
▁ritred	-12.057
under	-12.057
▁breath	-12.0571
▁pradarshnkaree	-12.0571
▁nikalakar	-12.0571
-47	-12.0572
▁paryatak	-12.0576
ula	-12.0577
▁kitchen	-12.0578
▁assurance	-12.0579
▁dikhaakar	-12.0587
▁apna	-12.0587
▁1972	-12.059
▁surang	-12.0592
▁mantralayon	-12.0594
rss	-12.0603
▁religions	-12.0604
▁regularly	-12.0605
▁guess	-12.0605
▁samvednaa	-12.0607
▁ghatak	-12.0609
▁mac	-12.061
▁za	-12.0612
sai	-12.0613
▁himanshu	-12.0615
▁bulaakar	-12.0615
▁lotus	-12.0616
▁sadaken	-12.0617
▁trainen	-12.0617
jin	-12.0617
▁pratyusha	-12.0619
▁juice	-12.0619
rai	-12.062
▁shia	-12.0621
▁dismissing	-12.0621
dur	-12.0621
▁aarake	-12.0622
▁influential	-12.0623
▁frenchiji	-12.0624
grih	-12.0628
▁bechaa	-12.063
field	-12.063
▁chargesheet	-12.0632
▁factories	-12.0632
vaar	-12.0632
▁parinaamon	-12.0632
ren	-12.0633
▁dvivedi	-12.0636
▁bay	-12.0637
▁thap	-12.0638
rohit	-12.0638
▁127	-12.0639
▁cote	-12.064
bs	-12.0641
▁vyavsaay	-12.0642
nk	-12.0643
▁dawaaon	-12.0644
▁navaratri	-12.0647
bagh	-12.0649
▁dhoop	-12.0652
▁processing	-12.0652
▁ambitious	-12.0652
▁collided	-12.0652
▁bu	-12.0654
▁panipat	-12.0654
ize	-12.0654
▁journal	-12.0656
▁ross	-12.0657
▁jailed	-12.0658
▁pidaa	-12.0662
▁swadeshi	-12.0664
▁swar	-12.0664
▁tightened	-12.0665
▁1952	-12.0666
▁sankraman	-12.0669
▁yphone	-12.0669
▁23-	-12.0671
▁kkr	-12.0671
▁naanaa	-12.0671
▁nadeem	-12.0673
kii	-12.0676
▁gagan	-12.0676
▁kahar	-12.0676
▁vijayvargiya	-12.0681
▁ladate	-12.0681
▁smuggling	-12.0682
▁shameful	-12.0685
[...]
